/**
 * Warden Standalone Intent Classifier & Decision Engine
 * Generated via bundle_to_js.py
 */

(async function() {
  const VOACAB_DATA = {"<PAD>": 0, "<OOV>": 1, "account": 2, "hai": 3, "paisa": 4, "nahi": 5, "not": 6, "to": 7, "payment": 8, "money": 9, "me": 10, "my": 11, "transaction": 12, "ho": 13, "upi": 14, "but": 15, "mere": 16, "raha": 17, "the": 18, "gaya": 19, "se": 20, "amount": 21, "wrong": 22, "i": 23, "paise": 24, "by": 25, "receive": 26, "is": 27, "bank": 28, "number": 29, "receiver": 30, "par": 31, "galti": 32, "fraud": 33, "beneficiary": 34, "debit": 35, "credit": 36, "hua": 37, "cut": 38, "ko": 39, "aur": 40, "please": 41, "are": 42, "blocked": 43, "a": 44, "scammer": 45, "debited": 46, "credited": 47, "received": 48, "from": 49, "transferred": 50, "sent": 51, "mistake": 52, "transfer": 53, "galat": 54, "diya": 55, "chala": 56, "this": 57, "same": 58, "incoming": 59, "working": 60, "kar": 61, "rahi": 62, "ne": 63, "you": 64, "karna": 65, "report": 66, "without": 67, "permission": 68, "did": 69, "successful": 70, "says": 71, "deducted": 72, "has": 73, "incorrect": 74, "bhej": 75, "gayi": 76, "mera": 77, "mistake.": 78, "twice": 79, "refund": 80, "do": 81, "person": 82, "it": 83, "payments": 84, "transactions": 85, "koi": 86, "unblock": 87, "block": 88, "karo": 89, "what": 90, "kya": 91, "help": 92, "sath": 93, "le": 94, "liye": 95, "ye": 96, "froud": 97, "frod": 98, "success": 99, "funds": 100, "stuck": 101, "merchant": 102, "get": 103, "done": 104, "no": 105, "even": 106, "lekin": 107, "mila": 108, "kat": 109, "hui": 110, "was": 111, "an": 112, "unintended": 113, "maine": 114, "ke": 115, "kisi": 116, "been": 117, "paid": 118, "diye": 119, "have": 120, "receiver.": 121, "baar": 122, "hi": 123, "gaye": 124, "unable": 125, "through": 126, "cannot": 127, "receiving": 128, "pa": 129, "frozen": 130, "access": 131, "need": 132, "suspended": 133, "withdraw": 134, "kuch": 135, "dono": 136, "nikal": 137, "tell": 138, "joke": 139, "book": 140, "cab": 141, "cheated": 142, "unauthorized": 143, "online": 144, "cancel": 145, "h": 146, "karke": 147, "why": 148, "shows": 149, "pending": 150, "on": 151, "side": 152, "before": 153, "reaching": 154, "shopkeeper": 155, "they": 156, "confirmation": 157, "after": 158, "2": 159, "days": 160, "stuck,": 161, "saamne": 162, "wale": 163, "dikha": 164, "pahucha": 165, "dusre": 166, "bol": 167, "lag": 168, "fas": 169, "made": 170, "were": 171, "entered": 172, "got": 173, "chali": 174, "dal": 175, "called": 176, "him": 177, "he": 178, "return": 179, "it.": 180, "happened": 181, "person.": 182, "person,": 183, "me.": 184, "ko.": 185, "ek": 186, "chale": 187, "se.": 188, "as": 189, "am": 190, "failing": 191, "when": 192, "someone": 193, "sends": 194, "does": 195, "getting": 196, "reversed": 197, "bhi": 198, "aa": 199, "jab": 200, "bhejta": 201, "hota": 202, "kaam": 203, "main": 204, "hoon": 205, "fail": 206, "bhejne": 207, "reflect": 208, "aane": 209, "problem": 210, "temporarily": 211, "due": 212, "suspicious": 213, "activity": 214, "make": 215, "because": 216, "and": 217, "both": 218, "denied": 219, "all": 220, "in": 221, "immediate": 222, "activation": 223, "restricted": 224, "atm": 225, "card": 226, "net": 227, "banking": 228, "freeze": 229, "locked": 230, "deposit": 231, "weather": 232, "today": 233, "how": 234, "your": 235, "name": 236, "for": 237, "about": 238, "yourself": 239, "good": 240, "morning": 241, "hello": 242, "sunao": 243, "mausam": 244, "kaisa": 245, "pizza": 246, "order": 247, "cricket": 248, "score": 249, "batao": 250, "car": 251, "balance": 252, "check": 253, "random": 254, "words": 255, "here": 256, "abcxyz": 257, "test": 258, "message": 259, "just": 260, "checking": 261, "asdfgh": 262, "there": 263, "okay": 264, "thanks": 265, "thank": 266, "dhanyavaad": 267, "shukriya": 268, "haan": 269, "ka": 270, "revised": 271, "fraudulent": 272, "wapis": 273, "fake": 274, "deduction": 275, "want": 276, "chori": 277, "fraudster": 278, "scammed": 279, "complaint": 280, "krna": 281, "froad": 282, "saath": 283, "kiya": 284, "hua,": 285, "cheating": 286, "stop": 287};
  const LABELS_DATA = ["account_freeze", "amount_debited_not_credited_upi", "fraud_transaction_upi", "incorrect_account_transfer_upi", "out_of_scope", "unable_to_receive_money_upi"];
  const CONFIG_DATA = {"maxSequenceLength": 30, "vocabSize": 288, "confidenceThreshold": 0.7};
  const MODEL_JSON = {"format": "layers-model", "generatedBy": "keras v2.15.0", "convertedBy": "TensorFlow.js Converter v4.17.0", "modelTopology": {"keras_version": "2.15.0", "backend": "tensorflow", "model_config": {"class_name": "Sequential", "config": {"name": "sequential", "layers": [{"class_name": "InputLayer", "config": {"batch_input_shape": [null, 30], "dtype": "float32", "sparse": false, "ragged": false, "name": "embedding_input"}}, {"class_name": "Embedding", "config": {"name": "embedding", "trainable": true, "dtype": "float32", "batch_input_shape": [null, 30], "input_dim": 288, "output_dim": 64, "embeddings_initializer": {"module": "keras.initializers", "class_name": "RandomUniform", "config": {"minval": -0.05, "maxval": 0.05, "seed": null}, "registered_name": null}, "embeddings_regularizer": null, "activity_regularizer": null, "embeddings_constraint": null, "mask_zero": false, "input_length": 30}}, {"class_name": "GlobalAveragePooling1D", "config": {"name": "pooling", "trainable": true, "dtype": "float32", "data_format": "channels_last", "keepdims": false}}, {"class_name": "Dense", "config": {"name": "hidden", "trainable": true, "dtype": "float32", "units": 64, "activation": "relu", "use_bias": true, "kernel_initializer": {"module": "keras.initializers", "class_name": "GlorotUniform", "config": {"seed": null}, "registered_name": null}, "bias_initializer": {"module": "keras.initializers", "class_name": "Zeros", "config": {}, "registered_name": null}, "kernel_regularizer": null, "bias_regularizer": null, "activity_regularizer": null, "kernel_constraint": null, "bias_constraint": null}}, {"class_name": "Dropout", "config": {"name": "dropout", "trainable": true, "dtype": "float32", "rate": 0.3, "noise_shape": null, "seed": null}}, {"class_name": "Dense", "config": {"name": "output", "trainable": true, "dtype": "float32", "units": 6, "activation": "softmax", "use_bias": true, "kernel_initializer": {"module": "keras.initializers", "class_name": "GlorotUniform", "config": {"seed": null}, "registered_name": null}, "bias_initializer": {"module": "keras.initializers", "class_name": "Zeros", "config": {}, "registered_name": null}, "kernel_regularizer": null, "bias_regularizer": null, "activity_regularizer": null, "kernel_constraint": null, "bias_constraint": null}}]}}, "training_config": {"loss": "sparse_categorical_crossentropy", "metrics": [[{"class_name": "MeanMetricWrapper", "config": {"name": "accuracy", "dtype": "float32", "fn": "sparse_categorical_accuracy"}}]], "weighted_metrics": null, "loss_weights": null, "optimizer_config": {"class_name": "Custom>Adam", "config": {"name": "Adam", "weight_decay": null, "clipnorm": null, "global_clipnorm": null, "clipvalue": null, "use_ema": false, "ema_momentum": 0.99, "ema_overwrite_frequency": null, "jit_compile": false, "is_legacy_optimizer": false, "learning_rate": 0.0010000000474974513, "beta_1": 0.9, "beta_2": 0.999, "epsilon": 1e-07, "amsgrad": false}}}}, "weightsManifest": [{"paths": ["group1-shard1of1.bin"], "weights": [{"name": "embedding/embeddings", "shape": [288, 64], "dtype": "float32"}, {"name": "hidden/kernel", "shape": [64, 64], "dtype": "float32"}, {"name": "hidden/bias", "shape": [64], "dtype": "float32"}, {"name": "output/kernel", "shape": [64, 6], "dtype": "float32"}, {"name": "output/bias", "shape": [6], "dtype": "float32"}]}]};
  const WEIGHTS_BASE64 = "U/0/PW7IKrx+9yi9Ww2IvVLYRz1ydDa984InPb02/jzuYY49SlIdvMmkA74CeUu+Q9RpO9FZoj0a59U9vJkxPhMlPDxQAcE8KJWdOlKIH7sY2gI8MTuCvVhdpL1hoWC9etddvfv/WDz9J9W988//vVtbTT4V8gA8VzV2vFjP+z0GZBW+3FXqvYc7jr3mDiM9SYJ9PZ/JNL6jE849DPNWPf2L0j0KJ5o7eOAlPJB/rzww++K9MccXPVfn8b1fyhg+3WlDvax9kzyCVUS+yvuzuzNpUz2oeDe9M2HiuhaK9r2AycO9vxUJvtUsjb0DCRQ+y9olPvZwMr2Ye9O8IzpkPefL2Lxo7ye8oKAZO6ZkkDzoCIC7x9MXPcZNzTwY1py7hseQvJy/czzNpQs9qjBHvWAuDTtGYxK9IGZDva7oijzDbks9SWs8PTlwHj3DJxG9o7sVvXH7Jz0Gfas8QA8FvQ1nNL1Czpo84xwsPWCY7LxQsuw7k/W5vE0U4rwxNTc9WsOIPDLkhTyilPI8rnejPLSeCr0TNhK9ydwCPYDu/Duum+A8ABgOvViOZLxXdze9gM6cORBDSr1mb4c8Lb8BvWBepLrqBSy92kbfvLSBUrxgqNu6Aj+pPHNJpLyYNPE7QnzXPAAdsjkOwYE8AOhgOD0XKL2ooBU8gBybO4DX77wYfh2/z+GLPkANkj4GhRG/qdgJviooz72N83y+wUulvvuU/r7tIhe/kby6Pvy03z42TTw/dOWPPibHeL76H9o9DAMcv/R1yb7+dIY+Bi8Mv9KGgT5C99K9qDkXP0Gulz5jGBQ/frISv1eA9D7TT4i9pq8yvZe5Bj8O1Be/17uXvcpRjj5HAuS+f+xUPjY4A79v0wq+zUjdvaaOgb7qKgi/7vAEv7KzGz+6XZ29wTQCvdZVdT4IMk08NBP9vQrb0b65gUI+N/0pv3fBij5Lmg0/oN8avy46Aj0nWjw96HAcPlnEJb72z5M+PuLgPrjl0b5HpRS+GIEMP8jvvr5NVBi/cQnZvZsMl72ZkjE+S0KSPsMFMb4V7TA/7Fcev0mnhb0qRGW+ekONvunkx76zm5M+uRAmPvqDAL6di0w+UhBlvokrxr3UY8m9Hh9OPfqtcb4UPQo/GLVDPpveqL44ikg+Xk2ZPh+4p71Z1SO+/05Gvnb3WL5YYb0+QtfNPrQb4b0sxXA+FYowvS9iVj4AJ4e73yJyvUNNhD7tR9i+797jvstviL7cING9Q6awPWjyQDwGwXM+mncWPxVaBT3IQdG90MyvPgl6qj5sisw9a/wpvU74W77pdS6+FfrWvj7Yuz5sp7g92DISvaWK7b58D2w+GbMivkbgm77J1sA+3j8SvpHDYDwXgfY+ZO41PkJWpr6tnLY+UtUzPY/0EL1EdcA9V2eGvqg8WL4Ndda9yajpPdewGL54FKe+FziivgPpm71J+p0+UPW6vpBmob5JLdS9VVs6PvhmnT6fyrY91Ua5Pu4Apz768Jm+1YWHvh1DHL6buXM+6SWuPtPfxb3O8pS+JMIpPMbUFT7aaM69iWGqviWBlr6waSy+zGxWvjwtW75ml4a+GLiBvg38074w5KS9jK44PnJRBTzsQCE+CyXAvQVKpT0+tdM99c15PYzRJj5poUi+zNeEvny0K773VP+8cjSWvse+oL2kpwi+LrFTPJERCL5ARfI94Y6PPtTB2rtFp/69xL2aPnntMj4VXH2+Yq6OPbOesz7TmkS+J/jiPYBprL1Fsry+atApvoGRcD5LPt+9pJK2vbMHSj1sQCe+zErkPH5M4r6eRk86NJfRvcb25T56X689PWcAPC8B6jyRnoc+lMCTvu/cIb56R7u9IXO5PQoL9z4R3Rk8S1mEvo4UHz4kqQk+f5tLPiLYRb7Nqsy+NpSePXdGfL48QEa+1DBAvlOijb465Us8roNCPp5ebT6qwQI/qPx4Pnw+Ab5CryE+H2IdPu8yPD5/nDO9PNHEvTyQAr+8Wwi/vHSJPrvOl7uRD8i8lniQvjXc1Dzlooa72JiTPSea0z6MFM69SZMvvgPdOz/JrjI+BosEv5bEXD4SwjM+sdNWvFIIbb1wVPC+tniRvusLub5fOJM+Yyopv/T11b53ENa+WaXbvuFjhj5hgTS/A6xovsMPYb5nzhQ/LsTiPk0dKD4xp8c+PsUQPzygwr5vLCC/iai4PHgkeD6mxi4/4AU2vim9JL+/KJY+uE8PPxCyhj5trAC/LYozv/SzhL5br/a+Mcf0vbcEqL7HlD+/i6ECv6vR7D36LQg/pokEP1+VBD+W8Wq+sQbkPmGyMD6LQMM+cHAAPmFrj76l9Te/EAIkv1rnyj4DC7e+7dmXvq00/r6YTKC8sQdkvcD8wz7xBjs/dqQmO6gh9b6zNKQ+yEwDPneB5L4CvPC9ipwevRcqCb5rYIS+t6npvnI8w74cyBs+ps5qPp8Nyz5shMQ9tPM7vvbd6z10hLm+lwKjvhbVGT7PKwu/S6R7PvrIvjy2iLQ+RzyNPoIpAz/+cbS+1CpEPiAllr2wEtU8HNXnPmSNAL92yTe9Z1Y1PnJUmr41kUg+HCuvviYxuL0gU4S+RFVgvohOv77XLbC+4JSSPiO4wL0bDgc9Djo2PhfMp73DCEi9K5iIviWCiz7Prra+h74KPvjb7j7JKPS+nl3GvPOSmz3P/7895RpavjVNJj3tglQ+WTwdviqSED3jX84+tlnPvb3x07612WS+UcIVP9+TeT6Jlq++lAK8Pvle973x/5q9KxIDvgHSxb6ji6a+UjZdPgeoGz7ot0E8fVf9viV41L7fSk696ri1PoSjzr7RnNm+UjCqviaJmT3gkNw+ZCWXPlSx+z7Yj74+qo/uvmrui7zzqpG+TuYSvdjjmD4TP8O+x6RVvrw1sj1gzBO8aC+RvRw3Br9WL4i+CJbxvucOR76KxLy+P9PHvleoC75BOxu/iyesvpMdQT7UVGG+IlGwO+5bib6yNGg+VAkevdPaVD5a8rw+wLG3vrfPCb7urbc9dE9hPQj38b5Dtse8AGVRvMV84r3kUYC+oHmXPl46Uj7BQ5e+69L/vvhhuT7+Ziu+IP4SvWNTjL5X1IA+rlCevjuLCL8uZTS/IkLePVOswb4fUWM+J1m4vS8jgr6Ez+K+p6HlvrYoWr5TQfm98wLqPRV/Hb/sMw0/9KW+Pn33Az7mdRM/eJTXPpRnVz0JlM6+FDLbPCDLJL4/5/k+Aadzvg/Irr4W3J4+CP5APjtZij5Dkwa+83E8vuE1Er7Zbh6/GTQpvjsBCr/afry+JNwcv+UvHD3aZ+s+ieKLPTcHJT6NiK++KQ4lP1mbhj3O8Qw9RGQcP+6/Fb+H6/+9dyM5vjx11j7puw2/LlfLvouTsL5Y0rw9/AODPeWheDxKxxQ/3KvSvvnXsr5q6zw+Nc7DvonZWL0G+AW+9rdQvrwELL2w7+++eUjKviYXnj4/uw6+YjKyOqnOrzxr+6i+BY/Pvsvp+71sQVe+R8MgPqRLUD0VQvi+INQvPn6apD5IS0o+OQPiPhYaIj59uWQ+hABEvjz8571ky9O8YzC+vX5Zpb4qisk9DGwpPt5QYb1LmVw9KZvmO8IC8j0GTuq+18dhvir0/L3EMMu+vz1Evcd+Er8xTCW+5MfdPSni8r5t6iO+CRXCvYxJmT5BuAS+xBWrvgNBBj9u9AK/td6tPg2buD4elUQ+/e0Yv2rBs75BaSQ8IMO+PKUXej0OYwM9O9syPsDJsL4v44C+pnIvvpC7iL7W5JE+VxKavtp7lD5dEeC+dJW3vsaus75xZVc+CXqtvgfTJT2uaLY9LusRvmgUhb3EzlK+2zOGvjRdaz7X5pA+ksfzvv17qj6mApo+b3xmvl2+tD6+L9E8LAuCPnt9qr4udp29FaM+viAe2T3Bq0688B4JPu8nOj47fLs8zqb9PUMyeD43PzU+iB17vThnp76bsWS+sXiyvg78tr2TIn6+O53lvFQFQD7RgTK9ltUJvgzFA7kgxbc+nxBBPlZtFr5Mask+NnKwvrGwhD7/2Hw9Eq+WPsOAob4N4HW+kyKovuHibD4yKwA+ULSHvn9CrD4C0p++H2RNvoC0I77IwIe9dsNnPgq4573gvxk+I9TGvgc/Lr4FZXO+swrwPOAPnr3Mm689UThuPvzSbb68uVG9KQ2pvQUORL4f63E+FVraPHsNl76bOk495LOPPuBatL1JeI0+ugxiPcjJfT2EI6M9aHFdvkZcY75yU0G9pogevckRkT7NNAo9zlR7vmjscr0n44A8HfurPvFFPr26VV++HcmHvhu9cr7PYwA+Zj0QvliGnb5JkLG9qCYuvnrLpr5JWqm91DKMPn4UOD0jiB2+BpJ6Pgmwh76DEJg+peMkPhWu7D0mfzy+ceiUvZuO1LzofQQ+TSqxvbD+Kb4Iqw08UQ4WvoYvBL+Golk7TSDevYwJz76ac5y+jVzeu8aqfL0Qp9++63Wivg+Fsb6Jlqs9XdpvPoHi2j4y+8I+6IkhPVdx+z1AJAm/UmmWvju13D5UGAO/z32VPrmZm75QlLs+Wo8Fvak+0D5RQh2+cdt0PvLCKT6cayI93bHGPptiCb/waCC9JMtPPiqcg75Yn9A+NqDgvV3DAL5KQES8cSVsvhizOL7HRZq+JKqXPk92Oz5NOY4+vZM8PuFNuj3/xrM9riulvqKKRT7iY/u+HfAYPlPl+T5T7QW/bejxvY8EjL0gVyQ+0167u0xd6T0pso8+PYOCvtDmgj4MJ+k+W5MEvlr8/b6w08O+BQHoPp5/Pb+ufey+AGGSvrp2K7+ZyBg/TsQQv6Lgz77Q2xo/cuXUvqc2t7uqwzi/DhutPh7j2r7V8KO+ax/FvjDt2L7X6f8+UZ77vt2rBD/8qoW+a073Phinzzzo9p8+mEYOPw5wHr9hoQ0/1TStPkFotT6PDRK/xEzXvvUXoj7DfRA/mekCPxdXJz6fOg2/LAPovn+qmb45vic/83VavmXXQr+ezPi+9FoZPxmo2D7HD8S9g1oPP9tKEb7rXLo+Dmj5vhG+wT07fvw+aYeJvpC/ub6OGZG+zLK6PvCd9L69vQi/vweyvV6Wsb6B2Rc/eX0GP2gbEz9bRje+HzgHP81QFz+ePiQ/zmwJvnChFD9V+vs+2xUBv6YgNz+fHna+qBQkvz0yAr4JXCU+OSXHvjurFb8tExm+AoknvncxOT+rKwS/xZgov+RBED/z3Go+KFIPP2FB/L7Lwvo+yjXZPivWHL8PHb++aOUAv+4ZKz5U7BQ/vLkGPywa8b4hroC+RaMWPhPqDb/QHyW/i77KvhwSJ74oUpG+Cl8Av2Pwer4+Qtq+HxnNvkTVHr89gY0+lZrmPvCSAj7kjN0973CJPXuBGT84dJY+D40Sv0vtcT43SAu/ZeAZvw/OY75SCU6+mfWSPZkZAr+hSOE+9Mvxvt3f3b70qcM+Bx/lPlw/rL2VtEy+smgLv+TojT7znb2+QnjsPaCHc77Ml/++ujqMvudMKT8TlwW/yS7avfVeAL9braK+4AnIvP3q1b63rZe++OO2PiI+4z5XD9++ksi9PrxApD7Zg5m+516bPri7VL4l/wg/IwUTv8qo8T1L7Di+Cx/jvafRRz58qgQ+ykuLPsZ0mz5OznM+xNj9Pn2OUT6NoSi+YNLDvtxxpj4IKI2+3TUGv3/2F7/T68090pO6PfqUtr0ihLO8J2UZPgOD/z6TVrA+ec+YvsbZwD6nOZ2+5TKDPkOCrD2HJKo+Q+i7vjY5Db8JcQ6/jvzGPuG6nj5+q6W+TrgkPzfv8zxGFaq+kU59PSmf7j18H3++FVJ3vtbtoD5JRGG+YMnivDW2/73qa96+pUbovNGPoT55k5k+v6pcPpfnoj4YG8o9UOeUvuDEvL7cP6I+ZJeQvo/W7j5/3ES+r5RTPpXbJL4fTNI+g9mOvkkNBD7fsJQ9Gh+bPVoy5D6+IHe+TPiPvTo/ej6BqQq+G2StPjl1RL4Hh22+tNZ5PrTuR74lm46+SexSvmwQCD4QlJg+guupPoM7Qz6/hQE/CuAPPnAWfL7ocI494wBpvmlBXz5lJxc9wUqQvuqn1r5jv+e+C+k8PpPWJT6jk1s+ZkijPErqNr6VSQs+WL2QPraKHDwcYam+h9KLPQx61D3PSSw9iW7uPRRmhD2NKLo9AUaCvkX6C7n2JCO+dVcwvV68F72JRUC+aEwSPrAQn74CRom9aMk1PYbMLT7jJ4o9D2mIvqwfK77Ju7G9TH2rPhVrDb5qnGo+j8xFPbH9xTyzjcK9I4xYvhfGwbx7zG697vk/u6MrrD1vDTG+KXHRvRgPrr6lB9m9oWJFPoDVRr6KShy9NB9SvnHZRL5PdUM9Z5h/vphGxL6BjN69+rIuviXohr7E8Zs98bEdPj5/ZT52Xeq9FMcHPtBT9r36KgM+z489PuVjHb6eICG+6AsSvXLMrb0RjEk+BjXUvYCIX75DM4m8Wz1Nu9rtA70gExo/+e8uP7JHCL64Dxo/q+GxPnBz/b7CIAc/n+7YvnAsL79OIK89Iwx0PimBAT7kPAm/9OjXvjz/FL5J4PQ+bif9vkstJb+JSuO9JXsePK+OBT9lvrW8P2MTPzeIAj/Kzx6/zjE3vaelLb/QtkW9sZPvPjd3WD2SPXa+dtouvkwP4L2+ARC//k0tv0Y/OL5sYW6+oPJvvgkeL7/JUN++uPx2vbJ4D79y5S2/qggFPjtrkj2vueO9J3trvil8HD7kb5M+UFGXPhy8GT6ruoy+WJRgvplMHr4ox2q92jnQvpc4ID6cMQW+Bv9SPvdxDL8DILK9WjwoPjQyHL6S/Bq+cImLvWe5kr4t7909mgkgvrZbGj0cpJK+uw++vufqqr4Ap5M+Mc1hvmhDK74zh+W8fTWCvq8DXL18i7+9Mv4cvnelbz4xLxs9FPPGvowyDz5v6H0+1lOFvdgX1T6MOcM8sZkjPlCSAr7azui9Gqwlvsgj8r0mNH69wJP6PfPkKLzhbGi9LV76urof2j2IvXQ+0uY9vhh8jr4GB/m9Sbp+vvO5zbvOzgC/CmMVvnzCAb3u44m+8m9Jvva9Zz3997o+exi3PU/pVr4cFtQ+TYOJvgcvlD4u9lE+yl6NPX4OmL6mtnG+acgkvV+tVD4RUyQ9YI8kvp2+Lj4fLhe+c2USPT/7YD41nWw+We5xPgLQzj2sts8+vyXgvi5xvryacb++FEHcvbWAUb7E0mG770MPvUbI3r65CDW+zNiRveF+Sj7gjom9idjFvhIDb74e2ho+KzH9Pj/glL6c6O8+tvYlPmOkCL6sxJG+IpCkvhfaJL7PSCQ+bQYoPsDOH71MOZm9ZJKCvU0cl77ySyO+yJxLPRWtJb6V36e+gffbvrnprr6LweO9xJfjvkdP7r6K+lM63K6/uyG7iL4AYK49t/KIPsS1tD7byYi9Ni0TPs9yWb43Aoe9KeWFvDh8pjyPpI2+zJo8vjmBmL7arI8+EYaFvlRqnb6/R5o+InubvWa1H7+AvAc/DcwdPyYY1L4nKxY/y00Mv5GiLL4aEsm+HOgMv3DYB7+qMfw+2OKBPhZBHT83ley+5poEv1+32z4Re1w8kNgCvf2aJr+ejw6/odMfvxNRBz9uehA/ZFETP8BUAT+wFBy/QAQQP/4fG7/sOhe+31WCvvEAFr9GQvQ+zavGvuLLI79L5CK/tWwcv5mJCj/u3xa/jhLYPhaTJb+goey+ziEdP+Y4Eb8kKRi/ycrlvlt8Lr9IGhO/T7vMvrLkLL610hO/7D1JveBxJz8nBhO/qAYjP4+9ID8g+b2+rbEGv+UsvD4MggM/VuXbvkLw2r4UggQ/9wQlv8bHIL8e0eG+kFDpPL+hK72nQ2K9xofPvVorI75PE5K+zA2rvsdR4b5h7528NFyFPZh2xz0UrKw+QEaqvigynb6VWjw989KOvuLwFz4Z+E29Cs0Gv1ZAEr0Dm50+/tbkPfmrrT5NJh4+sJ39PEIGQD70LXO+p/oHvtrPjLzVWIW+5Jx1Pn6wcb2waD2+pJFBvmnVEL5ERGE+JxnCvueNGL5LbIi+q2CzvlYTiD4QY9W+T7qBvrig7r3OKZ++dX6KvtSDO76SLYw+kCY5vj6CSL79nPc+ArncvsjJxD6PEbc+gAD2PP+iz76Z+De9vsQnPm/DcbwasOu92+YUPIDrEr5wdJi+oRI1PbJkpr5DYpi+euycPvkjXr5T73K8cUR9vtdcRL6FDaW9EqiVPl0zRr5Vxoa+GfqWPUWHL72+GP499nVTPIrIRL71CZo+TKEDPnZ6Vb5kIsC9ZGWaPB9Aib4zat49XeORvvR9pD5BPQS+oM17vQLnYr7/vMq+MlUhPlPyxD6s4fe9zJcBvrAOab5rmpk++sCxPgxICT1yWAG+pzlSO3+blr0lbhw+ME4BvUCpbr6MyS2+eU5Avls0or4tP3E+Tbk8PhcGJD5GAKq+w7EzPimxhb1AMa0+ibGFPrBRpb18mM69HmI5vg1fzb2a14Q+x1YwPBttnL6R27a9sblTvcdAd74z1Ig+Hu9GPr5pVb7d2Xg+rMkWvol3y702N+I9R2B5vtcIhL4dVYQ+kvmVPYPpsD4s2lm+nuKwvmEQVz6IjCA+PzFBvb5Hq77psIO+W5+SvkA2Wz5IZz0+deaQPkfwcD7XOFK+V/RhPlshoL64Eqc95qfmPTf4rb4D/Bk+sIyXvmGviL4m5M2+oPe+vgA/Gz6wHs2+PtznPVTDzr73K5y+Zv3DPqLIf75mVbu+QUOLvqSBnL6FU6y+8VtjvmHhJ75Uan2+UN9pPTAAtz4XXqq+s3Z+PlrOpz7HIJm+e0Wlvr+zJj5jiJk+wvkDvsmVc77wSv09DnKevqOLnb5UC8a+VJUyP/rYeL7Lgcu+Yjz3OyGkpb25za09NGzavvgNGr+uwnk9XSHavpRWPj7bEy6/5wq3vgalDb8g6Lu+1aWIuyd0DL/UIOg8lifovtEbFj+CoZ4+Jq/EPse4Aj+oYgk/6T8YvswWGb9EG0g+KsZfPtOcET+iFbm+S6L/vsqDiz7fnus+uy+9PqC0nr592AO/E3v0vovDCr8g6S89zrgCv+gfPL9/iTG/oveWPuL2/D7T/MU9xcrkPsR6mL68uh0/hsNLvbW6fT6O1+k+4DbavgKFBb/DZ76+zSPXPvz8FL8wSQS/qBbPvuTgSr4HB/U9oPzFPuxOLD9K8jm+DxgXvmB+fb73jMG8hBuLvbSrdb7+hJ8+8vU5vrHK2zvUsrc9ZZtpvoozCb7tL8494aSNPvO/6z5Kq98+gMLmPSw/5b4FxHO951wCP9NKsj21sLI+kEXfvrcGAL1bjKq+in0SPTsYpjshDSc++wFBPhDdkz2LSII+CQTTPZeWEDx6W/c9YyMUvvSZlz4xZG0+ZZsrvXs6kD6CyY+9VUpavNIm2j1xD2c+pe7yPpcE4j4S7QU+uJXkPjiC5D1mnaS9cA6avdUQGL5b5W891mfYvQwX87xobJi+cDyYvp77HD4lB5Q+R0QQPthslL36lf88sDiCPutkHT0hsu+9qDiZvS61EL54p0S+80K8PmQaur5Cl7G92cOePgfVgr5gPKg+acsvPnH2274CkA0+36pEPrDB0D5jBW8+2QWnPjojYD60Rnu+7vOkvpFXfD47agI+1mMsPqMFbL61+YU9NOqEvhbGOj6SQa2+VK+NPlQ/TLzZvQ4+rxdrPgekYjzTHQC97nfnPbM0jb6HgSo+dxqZvZhaHr41y24+jPsUPdFYRr7cs709NOyiPreauT7NRDQ+ZnQMvMDFzj6PTJA9s5uLvXBwNr4u8g++xxdfPo7gUr5nVM28apm7vj6AjL72SCo9jT6tPh3FlD4JO4k9UTwjvin4fToepgc+aSdWvliJP76vf709nckxPSzr4T07f42+gfK1PtDm5b70c60+utWBPi030j1lKJS9mCFQPi68jr6IaAU+d85qPR9+u70Fubg+wJvAPjMKez6+o7O+tPiRPbzu7b5IUEO+J/StPc+1YLx/lw6+6GWDvaPqbD6KVj++Xcw9PqDozb7sEjG+gDK2PnPuur5UKo++V7TWvo64E77Ct8w+vfepvibduz57vzU83s3fPUi3lT7eC0i7vjWMvmGWwb77y6C+hfG/vpz8zz3x7eK+QJsyvgp1fr6q/S09BdmQPfJPpD4Fcpk+Cri4vtowR70vtTc+2eqlPlmLHr6tDWo9XGDfPSIvzr6nRBU8rUToPnXCqz7nj7k+EZwvPm0Akz40nsU+/4wAv4Poiz5adyW+jZJyvhltfr4anNE9FpK0vq4a275r5xa+GDo7vg/z8j5jn0O+ABP+vta0hD6dSns+UAX7PpApyr5jEcA+QYtXPsFjhL7B5ee+QSfMvguLMjwOn4k+LssLP9F6S76Pq3a9YszLPUcQs77C1aW+V0dYvrot5L15PZK+vzrXvmqbhL5DQde+b1S5vicKBr/KWSM+d4iHPrmPhzwjvgg+F79pPtBx8j63EqE92TDBvljPuT2YWJa+PlCnvoyz7rsYpyy+3hIxvhDN675L6co+aZOQvgnFx75wjtk++kasPgYxzT1CCQg/6i/oPRy2fr7LE6Y+JhzlO2aKBz4GS80948wDvhtuFT0oKDG+k6nXvb6KkL6Iy7y+U8aBvprAhb3ukcE+i4GEvnxmkr6gsY6996bBPUvEpz6mRiW9zfKpPo3DQz4FGWK+kSO6vmIcPb5pubg+FP6APujKm7x3yle++ubSvcUQcj7UlAe+g/aVvv3bqr7thsG+H/jxvXu1p72swwm9PTqrvpjK9b5VdAS+iR+0PfwyDzxX5gM+Vhb7PF2O7T0TADQ+18CUvV4Csj0vCx+9zEaIvjbFTr5+BK281tjtvn/onr5JdXC+5r+kPYfGYj3JWlU9L5+vPoAp5z0W456+3juJvA/FgT1cU1I8jyI0uz0pVr5j0Fy+mgQ8vs07pb5Xot+8MGSzPdESCL2x7I4+7Q0lvWhpLb6CFzU+EjYzvmrp3T1QSgW+OXvivvOaXL4fGs49jvy4PfsujT7qIbY9L1WVvI3BJj4Kkj++Bzemvdl8Kb7gQ4u+/OWJPhlR9b1nebG+Y+VqvoQzn72yKps+868kvggog7yV56++69Cbvht5rj4773u+sR6IvtFdXr7gb52+i6CtviSDQr0xNgM+SgMmvslrXr5tgKo+l3iVvgBY3T7xAsI+vGu1vZNKW76hDUa8TJgZPhTzAT1CdRu+O7RdPXQmVr7d0pe+0pKevpW5AL9jPwe/kZEQP5znCb+M3wk/DVkav5sDGb8Fouy+rZ4LP57a1L7POwS+iFCKPtn23b6qDcM8yhK5vkrc+r5kcwg/QTv4PqmTDr9VCdg+HFwPP3tmCb9hVg0/bCmyvkYvBT95Awa/8QgVvng0/7698gC/FkwCP3gc8D558I8+nBMDvlIs9T1BKwI/aLnnPhhcrzxI4Ou+XbWAvvALAL/53Ak8A8MOv3wB+76HY/W8cNH6vpE11r6agU4+vDIAPz+UCD9Vpd6+LYcDP8fiAr824Ao/XibzPsvW4j6+7cu+dCz3vsZo6773vNM+a7y0vVnJD7/guPs+0dW0voefWz60HKo+h3fbPhG1Ubz2wZM+e318PuSZj74G8aw+kGe1vJ0jf76JMou9PXL+vcLWGL19FJ++1J/VvVJLkz1Rt98+K9swvjDL6L7nUvY96vQAvpDRoT5nHTi+qpW4PsH7IT5/S5y+hRAOvqKJ177X8ZE9sPy1PcDdVz6bIp88PbJdvgjPpL2Yuc2+NZqHvuD3Vb1xgE++cQIAvHfZrL4q9cm9ev3+vWlEfb5Jpru+ijaXvZdyUT3uSh++x5kMPv0dQb0BjZM+x8SivUqZIb0eIZg9y3QLvvhsrb2m/xe+kmgxvmwOqzv+yPe95lY0Phmpa76bqYW+4mClPRUXrz3ZxYE9GFTjPcITxz6A5Ba+d1AgPgMNnT7AgOq9mt6/PqKTCj0/S76+1okKPjHBUT45sfo90X81vTZMez2h+Zi97OajPWggh759egi+zfYiPqZiET6phpM9C4czvRs/KTwcry8+gjilvgW1fj3cdsG9l1dQvWJyRD6QpkM+EL7OvQw46D3+1jc7OVe0vEKDZL78Pny+ir1EPj4oyr1Hp2m+RKUrvYRyNTvhF8s99lcXvbgalT1H5PY+ZNQUPuu0Jr4z01e9SKO+PWafeT7kaFq+sKdEPYCRtb6U+8e+XCjxPYxAPz4CrLw+rP8YvnpTrb0fUDG+qwzJPRDSwT0h8DS9neN9PDa3Pj5BWek+83s7vjlxUT4A1ao+2/ZXvobbnT4axN08oYbGvpvkPT5JHUw+ij/5PX0L8L2Vm0s8a3dzvd9XAj5WCpm+ZxD1vWtv4j2tmAU+V+37PZGaTLz4Wok8I7FLPjlm3746d349Z95uvvYmRL318HA+KxfoPUWhqL2fEo48MqGpvYbPOb0PuZC+G0Jwvni6KT5F2RW+feKPvh6q2r1xt328GySpPeyNrL22oAU+2ATlPsl9qD2mQB++KVv3PARJuT1rsU8+lOg1vrIwybxWjKm+MQ2tvjjf8j2cciE+acefPhe+Br6lnZO913R2vnvRIDw2Nqo9e9hfvf5DPLtZ6nE+RPOKPs2vuD4dJVE+MmDvPiUuDr8yZ5290Z3BvqkJ7L0bKMC+2tMEPmzxhL4aBuC+Ch6GvtlNzr6hsLg+CUeKve7hsL5xyX++F7jDPv2X2z4OFfe+K6oEP8DpZj6s3Tu+sa3/via+674J8oO+NdxnPq99Dz+L+4O9U2XkPKsBJD7GXMO+I1lGvllS17xKCqK+ExHOvtZX5L7Se7q+5PMBv8+s7b7FlAm/kG1GPlbFhj0DlB++mt0OvUhD2j5smhI/mniPvJnEaz7j7pe+yN9LvSFyYL6ij58+CsPHvtzJiL7+ROO+kubJPvEkv765Ev++aUTtPht7373kB4e+SwBBvuLgSL6rZwA/FZuXvgtAAj++BR+/ZwHbvsTABL8zuI4+Vn7QvkjzID75mD4+b/LuvjXdiL57RNW+tkgyvnUGrT5Qno09crsFv0lV6D5MKgA/3gT9vmg/Ej9UbW29O5OZPj4Z4r6A5o2+y0bhvsTvtr0/++w+IJ9cPuspiT5DGt+9uz+svZynQD7N5Ms+uNRtveXI+L4ikN6+bu8Gv6cpJb44wP++cUQEv7lPRj7GuRm+6pLLvv6+g71Zwgg/6iMTP70AjL6lWM8+gADevvABvT480mQ+rajUPp773r5LXNO+3hACv/Bv4T61uoq+WP0Hv0aHCT/0YZi+jgmpO7QAXz7Xr1M+mimsvKW0TT5sahE+M11XvmcFGT6NKfS9WXIwvoUalz3hJME8bgS1PWVpj75TO/G9GKKSuhwZiD6EoTG+ou6vvg2A+r17ufC8o0KIPooBw7wzvbI+Cgl0PvX7SL7EB/k8FBmkvtHcvLySsDY+/D/vvHvE8Lx0z/G9VSeQvTYbnr7pjnG+N/qzvFml8r1TKwC+B1CavraGg741wJ064uaFviWos75om9u8cHhUPJlmNb7G65Q8PjIPPjNm9D1RfeW8gAYMPlvBGL6ZNoW9waPKvTvmCb4Rz4C+rS4BPcM2lrzbodg9vfGDvglog71KM4E9JhPKvfbwpb6CJe4+oinZPiZz2r7OldY+5gq3vtWTmj40Mo0+2l2EvuB53r6eerk+7OV3PTwW0D6NovS7nMiuvk0HsT5XtLA+ps6gvjcj0r7X7Se+XFm6vtVNIz0k8+M+jbuMPljc0T5jk9S+rumzPgJogb4DFC8+n5IQPmR+8b7bwFg9m1uGvjtovb6cnpa+HEz9vm0wrT1xe6G+TOmzPrpex75x8mW+EabGPlFed77X5rW+5jAyvjEUn74Gtk6+Y9ycvg7qsb5KYui+fy66PI90bT4eS6C++LFPPkdrfz4q/3u+Jk13vlj1tD6ZMMw+eCyMvm4Inr5GMuk+0s/fvieVrb4Bj8e+xW+rvob8o70y+uQ91H6svh1OyT4Dkda++0VKvvhHmb4bgqq9XwHXvV+Eaz5mvdc+Nxo9PukRIz4UY6m9x1fyvtJoyj3IP90+8X/GvuUytz411W28K+/QvUWU3D2J7Y09JU+tPSQohT1v5j+8Sil0vvL9UT6zHDA9yMTRPVOpaz5Ul5a+PV12PrNrBD5q2iw+9tsnPpLMrr4/ipi+eYmNvra3sD5JSh8+8cUePT2uKD7Wehk+p07lvWpEGr5mXJ0+JVRcPP16AT2Vu5k+Ha+fvp7sPD3A+QM8wKigPuokqz2IdoU8xGvDvTLLEj4YsfA8IrkdvlFgFj3rhr2+1mdGvt2woj7PJ7m+dyujvsMl670Ocpy+WYC7PoLQiL7vid69guVaPtOYKL5poqK8ouncvj42Uj3G9lK+RmwAvgyRNL7SUo++3/t4PthlI761P20+nlW2vdCHhz6PPCC9/4sxPt97Hz52l6m+/S2NPirYPj4cMlY+yxRLvrhylL6Hzyg+py6sPhbehz5CCRW9yXOJvh8vRL5SHOy9GayKPvO/CL5XRdu+QNdKvhQlpj5GQzc+qe0zvD3Iaj6qMtC8J8wZPs8ubr6OIgw99wpoPrzYzb2R4oi+yzkWvlywDj6XVpm+AZRTvkuVxb2tvU2+raKxPh4soD5I0a0+jbmUvXfWp74YU7O+NeQZP1Mnn75S9dC+P8oeP8IiEb9FQrI+KxEnPSNBC78TdnU+RCjDPhN6Iz+g1ww/XpMUP1twjD2Z5wq/8yz3vjJlCz8ENWO9MWrdPkZyDL9Dtyk+F30Mv6M71T5YkRa/f6rkPhkrJD71yfK9fpcJPyVFZzxdbrW97USiPuHb+r4qics+T5BavrVcc77RgKw+K8mXvrQE875dDy++w0kRPzEIGz9rv+Q+bNtaPsN8ED9+qG8+jmSdvoqWnL3nXMW+PFuOPrC0p76GDmC+gLIEv8saD79Y8aI+nxzyPoXTzD4J7TU+y88uvuXYEDxaw0Y+A/+mvirCur6AW5k+usS3vtKag76QnG8+zJkcvkN6gDsowA+88wGSvT0TJj6s4L0+X7FovleHob6gfYO+LzmSPqFxlz4565Y9I6ibver9gT4VYpA+gZ3MPUylG75KsTm+pwaIvqH9Tr7q+pW++UC5Pp/FQ7596vA9KLAnPTNhzb4h27A+x/elPiU8iL2UrZo9YR9OvCyzyD5qTXk+x1Q3Pjil3z0m4qU+mGUwPtS/V76RvjU+Jcs3PjuOVr7vEwa8h5o0vsOaij6Lo1M80RSMPhqUbL5bLhu+P1lEPlqEez7BeDk+qjMzviVKHj7xQXa+KLNMviJ+Rj57r58+2/SOvqofILw/RUg++qgdvtNhFr9FOwu/jikEPxu77b5X5Qk/qwrvvgka7r68d5K+ddIXP7u0/L6dBFm+KEWMvvSGjL5peIM+mAvuviF8Bb+gufM+wmAIPwN4yr6V2/Q+kdygPhxnC7+mfp4+yvHtvi6+CD99JPe+dFoSPk/B5b7xJuS+kmcPP/u2xT7Q2LU+rhKHPkKbtT4kEx4/gGvdPp7ilj7lAOe+T4LHPWmNur7ISca+o/CSvn/Ow72hEDE+y+Mivl59fb5d/ZI+4koKP0qoFT/q9sy+l2XUPtXZh75eHc8+C+WAPrHE7z7N5ES+lKH3vvVO/b5ZMNQ+3xFVPmEp+r7Jx/Q+G67KvNno6D6LdMA+Z93nPoKNGD7OiPA+zm+pPjlUlL4nBc8+n++2PfDOwr7X/46+qf2hu/7esr75/KK+QECePfXEOb6OZO4+wGuNvur4176EXr8+JkgxPoQAuD6o/OK+mACaPmU3dz5wZ9K+ejy3viNbmb58PrI9pVa6PmoD2T4sZpi+YCRWvkj0az7Z1a2+rmXEvrTBn778Nag9eun1vdp7pb5wNN27lZfJvgNaCL4RRNq+EIcBPhb70j7jpV4+Cq4FPgk2Ubzoge4+KsVoPrnW7b4W6pk+fYDpvp0u376i19+9vFkQvbyHgj01Rbe+Qye9Pnzfir6dKcW+T+6NPl4Fxz6NwgC9c07VPrcneT7EckC+4fB2PvNAJT5In9G96QS0PUO+Yr403Ja+61lIvqXM+j08PsK+WiSMvh/LKb7E4ha+XS2iPua3wb5sEHu+Y886vXbqqT7T7qc+craMvTrUmj5pkZw+77yrviV1yr5kTyi+Npc/Pv+iuT7ejl89imqMvuTsiztSE1g+qUjNPB82yb7RoqO+ZnSDvo08ir5JB0C+AI9GvtZk0r6M29e+SXsIvqPmJT6VhI8+wAUuPkOZaL1CFIM+0BBuPpfxWz53Wg096fffvQ+8ub7ut8O+Aw2rPZRqj77wfR++ckmdvtTgNz61D/G9bTw8PZkK1D4p8N49ZfW1Psf+yz4wTgY/zBkEPied9D5bNOE+Oiz2vgaW6j5Vene+kOPavgYHKL5i/GE+Cw+8vuz4875f+Ru+vdOEvgGu6T6Wle6+7qffvr1/oz5qEbY+4UnkPpUcxb5orOU+kNK/PtLp3r6ra82+I1mqvv77HTw6Rs0+ETnePtDuy77gx2k8dtGAPjb8v74bWOO+Z+2xvlcT270tMc2+4HnNvtSWlb5gmNm+JF+FvpZF9L6zS5I+Hku9Pp/8Xj7JBJC97rGYPpIh4D5trZw+K5nYvvJ44jwz9OS+fSnKvn4u/z30FFS9GHh2PceYuL4CIKY+XouWvhJk9b4nyds+pMCwPvSV0j0Mo9e9jS9wva1uzD6JNvi9gkHnPmMQwr7gpgK+mzxGvp8lUj4SwrC+MJGVvV7sW74WSc++le9bPSenib79/7A9P1kZPt5+C75KOji+0CqXPohsuz7iGuy++8fDPpKgFr3YkSI+wCnMvijKh77Pdm2+scrkvfmSDz8yUZ89WC6YPSBzCz5pEG6+zwI6Ps8xXz6ycNs9EC+1vtYMdL4dNoa+ggGhvqxour5csPS+raFUPRyRFT2egia+OEM1Pp6jmD5fCwQ/tr1OvllFfD1T4/i9o4mCPc2Ccr3cl0o+SQcrviEQqL6RidS+B/rLPuMAd75FWPa+zrayPrwNJD7/aLY8A9erPnsDxz7rtzS+xprZPiVElbpPZgY+dZuUPiSLbrzAs66+P9hiPr+B3b03TjA+BqB1vq9EM77D/lU+gRvGPvXlTL5/3t2+iH4DPZKeur6JSV4+n3y8PY4mVD6Sj0A+h6XSvrra6z1ZZK2+T8xEPp4GGLxfWvu972orPXUSpL44T3K+u26/vv6Av75bSoE9r/RjvoPlgj4aTJu+M01WvHgd6j2wEUC++QLNvh6wgL7Azha+UmAhvucl9Ly0T6u+Cpc8vZGJJ717wJA9lqkJvejZhz3DjtM96T+8vmryXL7254E+8d4kPgUVp7xwhWe+Cc+CPV+Mgr6QJP69t2h2vuFBpz5P/3c9deO1vvRQVz4PI5a+jJmOPvliK75nD5K+n4gdvnWkFz6HVz49tYGrPcMqPb7z85++qgfdPURJzj3/LB6+EgIcvqLqnr6QR3W64pA4PhSrij4ZPoA+bblXPjzkFL50CiY9CZTAvUTpJz52lDE+1pCcvlTY5727z668zhotveQRkjyvHKe+yi6dvQpGob5QNgK9lGIevlOzWb4aRZQ9M7HYvmqx1b1lbs88K0mPvgTWETx+KrW91jr2Pf94hL5lo4e9RHejPoDYm74Fm989bNIOPodIF72Ri7q+EADnPOqfHj6nwU6+Yi8KvODMjj6ti5q9afeGvlRhbr7cTIk+iiqVPpX7lb4DBJg+zfN8vvjbKD2QKEm8vfxAvrSRpr55AFw++BOgPRdpjz59jE++uUZmvs78jz71sw0+qqJTvQyujr6htIO+78KjvhzUPz5rjJE+YUFdPlZtUT4zVYm+CDtgPlurdL63Bp09fA6Qvemqsr7St4E+q7dHvlotmL6lAaK+MXqMvoJWRT4mxpi+XPFjPl3flL7BpjS+yICQPp3fh76r6oC+mYuBvp7Oq76FiXK+dBbivYkIP74lMYC+Y1GhvFY1gD5HhEq+zt5qPg7rsz54PDC+4q99vlGMMT6I6m4+ibTDvcN8F74H0Z0+YRWovuyMl76aZqu+G5OPPrjSZz6FERa+9o9SPpULrL4PDuK+Ps7cvoIVuL68M4e+NKqcPkd2jT6kgb8+h5Tsvuzkvr5s2Ws+3S+gvUfIYDzxP8G+73cFvxhY6L66nuU+a+OFPq+5yz41j4U+jLSFvlmStz7lteK+uJmzvpnF/r1Ro6u+yLjTPj1xYL6LhtO+tW6/vq0cuL7uKgI/sGemvsjDwLwrZdu+xvnQvqtw1T4Q2PG+jJoEv1kVpL4PD9e+sPzuvgtEgb61UXw+qEyovrNcKr2ojOc+eD7FvivzDz+GbAA/Ym3mvfzn5b5omRg+g4y5Pn/fKr4BlLC+KQ95PgM0vL4an7O+6vCKvnwqcD6DOLc+UFF2vmlfrj4eic6+ZPy5O6saq73w3pS+2Qybvmf1kj7rlaK9S6jgPms3lb50Nqm+kM2MPqR7DT5bcWA+BybmvuOJi7763vq+dQ+MPsPSnz7lDbQ+1OFLPlqAj77K0o8+/eS7vhY0MD3l87i+RK67vk88vT59R5++hCmwvqgdz75eZ6i+3LD5PucxyL63XrI+NkfavvMad77VHcw+Lla1vsCCtr7RpLK+peXxvgumxb7UJ4y9lIKHvlddnL77GEO+58yvPmLruL7+DtY+IfPaPnAJhb5EXJu+vqlhPpaUnD7AAV++/8SEvuTkkD6Esrm+c6CUvhvxf76e55W8Ipe3PjAMtb7IQDm9ljxEPuXCT767s0M+mOhCvnMszL7cj0Y+iuQBPmat0T7mpFc+ZC9aPNQi5D1n45K+ta1+vpdCzz2Q7QW+ThSJPHOsT760VXw+Lt8PPcFVlj4kPsS+BA+tPp/c9bzQuyq98bN1Pimpe74XHNe8JHuUPQk5gL4ggfo8S0xrvt95ZDys7XQ8o6XJvQFUi75ioE++PKi6PqtwUD7zwX49aO9yPRlZ3T1Jy469An5Bvj9QfLtFbJu+x+WqPVHwpz1nf4O+EeiYvEeMmzzzJhE9k+6wPXKYmD5btFg+Y3JEvpSyHD3mZ3E+9h2PvjWHnb5mv7m+4j2RPkuIqz5DTI6+b6+xPkA0xb6W0m89AP9FvnMklr6swpO+cPixPquf7j1wQcQ+wHZHvuCdjL4i6rQ+FZGwvb4yBT52Xri+ZWnEvuCQ076x9jE+BX62PuKLvj7mb0w+HNyvvggf1T5fiqm+nPoRvVMFnr60zLm+oP3CPtOuq76VONS+ljKpvuussb5O/70+tT2lvsRRrz6/c7u+MKaYvpM/3z4Fjra+PsPMvjoRp76RVea+Dxe+vjBHJr6yRZa+H0iuvrXXwb3REcw+B6i8vpF/vj46q+g+oradvtCHiL6GI4Y+JgqoPvB4a74iDiy+bty0PqrZ8r6aVKG+ZxQ3vvOuM7367BW9PuT9PSTw1LxvxAi9JEipvt9kS756oYu+x1NWPaqFUL1l56c98mdBPng+nL49Oiu+2H/0PLO9hb6/vuY94IRcO6NOqL5wzsu8A6KAPmpELTy0lnc+zpQ1PQ66ET203bc9q3lQvk7ENr7M9fi9HY+TvXlybD5fubI5NJz5vfFNAr4nytQ88LFjPvH7Qb5wnDG+8WJcvrt+cr4Gvxg+uf2KvnYOSb5ZSeS9AkhNvmlbbb6XD5u9apo4Pp7kRzzfy0+9klmtPtBtfb7VXKE+y9pePnBxCD4ihUG+gfFNvUjhHz0Yp7Q9lLCavWiEy7ysdZ294qJVvhImdb7uLIk+C2WkPk4Wfb5FhYo+i5GRvndR0D1Bx849m0xdvg/ahr7EDEM+X5EwOmosiD7FUES+B9ZZvu0fdD4fby0+KKLJvcJAuL6Rooe+rRm7vkK0Hj5Zqow+Ky1xPoa8kj5ok5W+jLlPPuCtmr4RyBU+VFqSvYQ1rr4/kSU++cV2vopknb4boYy+gLypvu7Miz7UVZa+egGtPnC8mb7CohS+WJmHPoxvm77TsYu+PseCvhgEmL6QVoS+VxVNvmShWr4AS5W+ynjtvYZmjz6yXGe+lJicPgc2kD6jL2C+14ZvvppJFT4bg5I+C61ZviPrQb5VuYI+Fd+cvh5Hi74SuIq+x0DBPhN6274xlbC+2Ftrvp3Gr76RjrM+VPrHvu6HsL5L3HE+sGKFvhm6FD7y8fS+y9EIPk6Hkr6rj5u+hK9nvhWZo75wb7w+KFG0vg24qT5wiZK9mNSYPvluPj4IfII+rdlVPp5zr74aNaw+D8thPquXpz504LG+D9eevsrQlT7Eqqs+Bp2gPud18r1ZC56+3pmlvvENoL77NcI+5bk6vr2v+L6BQaa+vVGcPlkyhj5ZhaC8UKC9Pqu9T77ja6s+QxecvkhzCD71fbY+TeOdvkAXw77ZaTi+Q4xvPk1Wo75ic9e+wMhMvbxfk753cZE+5tOmPoZU9j7eSX6++fmXvpckID5TUw2+oVmGvpNdrr46OcQ95nmMvtz0g76qe1K+kvs4vjX4Bb1hPWQ+5MxhPg6QXD4LJqu9JaUQvtRDrr7BwZO+cGO+PksCZL5gBJE+GRTWvXowiT6Q0c09Jp6OPj5zAb5tAOg8jD02PjxgBL0eb4I+V59mvvpFTb7Avzo+ZqoCvPspkz5ljoa98xw0vtlHOT3WV5W+aBY0vgUKb77gDa49x0PMvDqgZj4sWF4+mEG+PQpHRj5jgT6+K4VhPlxRlr6HOjw9gb07Pjnjm748Diy+8bXgveEWhD6hZn29f7YGPSGUwj36Ilm+zBLwPSQujj4WhkE+346aviTcjL52pzg+kspxvhljkL6QQZC+ras5vYiQ/T2b/iG+cuJgvgQTLL6T/Oe9gnMlPp4w1DyJSLA+yGJAvLrWxL3CW6q+AeOevkwZvD7asZe+08WjPuiOgr4OlJY+khhfvv3Wmj7Y2o29G/ghvXhIpj6vuIg9FJStPtPOQL4Jboy+ruhtPjiNKj4jXK4+pROMPFVahL7QMqw9eeiiviWbFz4Yaim+YPj+vXRKbz0eL7s+7uhpPswmcD7IsXY+2N1kviKYiz4zi7q+m9Y8Pg6cTD7Fx5C+SG3dvh/ipr6JKIc+lbq2vQ9zhTwaKZq68EJGvodwRD56qVk+/S2EPm5/gr4VNGW+07XcPkR8yb5d18q+fuLYvRQDrL7KlKs+mFaxviv1hL50klo+DBSFvrLdMT11fP++fzWPPjldg75CJ4O+6cU5vqKfqr75/as+ujujvsKDpD4OoKS+8fWpPtLr/7wGko0+0yhSPu/tzb6cV6M+fnCnPvxcmj7obbe+hWaFvr8hXz49GZU+pnymPpJgdTzEFa++6AyUvpvZfL5aK8w+vtfAvVXiAL/1Pqm+RhHGPg2Pgz4h/aM96hysPg049b1aJoE+WcbQvgb07j1aEYU+oH+Dvn7VwL4wU4S+BFo+Pqrjlr47k7e+TF/AveUEhL74UL0+dqqLPoUY6D5UG/+9BUa7vqU5rL5oLHc9eLmTPSfssr5J5rk+uLqsvrwyBr5uUEy+9lEUvlmFHb6/8FU+1cuZPkQpXD6JmXA+wY89vqpdvb4JiuS9CTPKPnCTgr6qMsI+E7jZvdOgMbu6Yiw83vZnPtTDCzx/+AQ+nczFPepUbb7DSms+8bl2vKGihr3+TTw+09SIvt1niz646w49T6E0PKYZhj4KTna+ab2/vtKkg75o16I+JNA2PtfAKD5YP0w+T+OEPqCTGzzR7Da+qx+FPsxm6rx3LxY+nE4QPilagL5dEM68T1VsvgAEjz5xBC4+6te0PLRtBb7k63O8kN6HvXSzur1gXps9ExaCvg+JpT5o1Je+09xVvkVFJz46vWs9pmtDvvjlyj3QFr09xbpHPpTtYD4gDLG9dfUPvv/iPb428Sw+v4EzPgwT5j2ZkPg9cWZNPsF+6j1uukE+0HaKvj9OF77nUZC+WjwqvtG/Qr7IsGo+4PgJvslQS73sFgs+wuSavqirTT7AfD4+B6VuvmJtiT163yy+7qduPkeXMz42P1W84bs1PvqMLj6KaSk+6yefvRnZpj7xs/w9CM4lvknWpT2L3rC9wS1ZPjsWob1MnCE+3M5Ivn2qL74v40U+fRuXPUTBZzxxjf+9m/NAPidxFb0Smba99wQBPnGZSD7Os3K+5P9DviTvYD4ncg49DAp/vtyrkL5gWmM+oD4aviEspD04omG+j+cSvmqhgb1tFpA+GjRPvk4uQb4u5089K/lJvOTG2LumDo68Z4YQvi0fqz5ZYjM+EzLTvbZjEzzif+o9XguQvi5d0T0EZn6+ZsWePkRrHb5RVf29WR8WvqimnL5G+ko+yXa2Prv+h70knRq+ugYqvp+XrD4v/2o+8+rKvdzkJL2l4T29NQ1Kvfc0Dz7p76S9j5IUvsANUb7eGBG+OkBvvu0lMj76GhA+VTSDPtcxZ77M3Xk9qr32vXitfD5XnmE+rP6jPS3kDL7vW0y+iW9BviENiz4BKLg8dJuSvpGJrT1QLCC7HQ8Ev0NJ075Yeei+JWTzPi9Dy751Of4+wWETv/1U/b7J1f++vyHQPvJf6740pMA963bAPhuf5b4TVIq+hZyzvtvz5b6jtNk++G+dPjEr/74xcvw+bgLuPjNq8b607Q4/Yzd1vpoVwz53zOu+PCmcvjrw4r5foKe+4YylPhtC5z7Az4k+V0FSvkF1Fz0kvNU+kbvTPondEr7jbea+3Rvyvtlr9b498j090lEMvzuI+L7x4rQ9Ym6Xvk82s74zwae9YR8EP6A3+T6Jfb++LhcIPyK75r7gntg+IGHBPgmE2D5p2dC+I9fovp7K776ojbc+00BcvjeXBr9+7QY/yE3zvlz2rL548e2+Zm3Mvm7q8D7loKm+BnuDPnle6r44SsS+zDybvvgxuj5Txci+VsQYvga0nz6UUZC+LojOOzMLHb5vwu++KWfcPn9m5z6YKtC+G392PsR7pj69Yrq+swjMPmt0s777EdE+3meEvp5V/r01lLC+Z9iyvmG4rT6v8K0+6hBLPi+QLr7ZIgg+FmzAPqdb4D6IUTI9bCelvnINNL5By7m+L44iPuq8xb7tRLm+rg45vMgkrb7nFqi+UQcrPjgPxT4Ij7k+K+myvlHetz5pMbO+2xnOPr38uz5OFoY+nDCDvt6atL5pqbq+gqGePuIoWD1gvbS+L/2gPjfpcr4KEIm+RhHsvubL1b4o79U+xxGovpqOdj6LAd6+ZN63vp7syL6kg8I+Ni7Avl6pKL4YfpE+EbZjvspdgLxMKEy+nzLtvpr1wz4pBbo+cUnavsWZoT7KPqY+B+6svvVLwz5A5pu+L7bIPi+og75ohc+95JqivvJ61b6KoIo+xUDCPm46Uz6XoS++UXbxPfad1z5zHNs+7ea/O546jb6uIV++7X+jvnzNCD4mgL++yna3vtP5jr1ZEpi+lQm8viwyGT59NdY+mH+SPl3nur5shNM+QsvGvm/D8z7ue50+n++BPqfclL6tJ6y+8r6qvpfzjj5f26c80++zvu3RjD4PGaG+6aEuPturRj76qZM+m2QGvhPCjD5B+EQ+7iEsvkZ1qj7TGoS7apajvpKJbbwbOJC9WpP8PINChr6Pj529Qzb8PaGEiT5OhxC+LTa8vqhWMT5N8cy9mHZNPrj34b0ZXpE+RlFDPugzo76+1sC9mjuwvssPRD4CBv09YzioPesqmTwWmTq+PE0dvrPShL6hqoe+5alIvecHLb5J4oK8fDKRvjTVTbzhhvo7LOUjvrr/ur6SQdq9e/ThPTJmRb4GRIg9Zqi+vVosRD6zS5S9ttTVvdxMLj0s4ay9+s4YvMDsJ77Z0wW+84cNPFXhJ74wdSo+n6dWviIqC75SWMm7P2TSPVpRnj4p3b0+IknFPl0ELj3EQMU+nXOIPhIQab6FZ88+lwxcvCnjxL5p77y9wquJvCBJir4Lpa++EzzvvWO1ljwd3M0+2sWJvv/Yt76RKqI+Jn6jPDCKxz723Ke+oS+zPlJPYj4iiLa+9OtzvlfOZb4r4BE+GI1CPpIIjj5m32G+vepuvkhyoD1zDr2+vZ+wvtm2Hb5Pigq+SGlBvhBfrb7DFtu9aGebvnFHg77dAsW+V/9EPFrKID5/rFm9z933PUWx7rxO5bY++odNPacfpr5fzEU+ujmGvj6wgr7CX1O+URQbvgFIOb0P1XS+jJ+LPvaWPr7cuai+1ZOYPozurj7I+mA+v6anPknGvj5jkZU9KYOqPiuAmT6Cx8m+5KecPtAnlr7jI8C+rp0zvqsCGz6fNIS+KTm5vqnzyr2izvy9sganPp85hr5Ltbu+ac3kPYHaUz4ha68+qY6WvjzuvT6U4mk+puzAvsddqr6OAJW+yzs2Pf6ThT4FR6w+dcyJvm3cyb0A3AY+aY+bvmOSnr5b+ji+Uq+kvahrhr4uXZu+P01bvgMFsb6L63i+yG2jviQLFD4TM10++q6pPF7mG73ZpZI+E3S0PsneJz6q/jK+Vw46vUL0q77FBY6+J9I1PMo2tL2HLQO+9gKvvqebmj7LjVi+fq2cvpg7nD6yOUA+tZCfPODpNT6lCL09Dk8cPooquT3hG2U+mNWrvqzGQb1d+oS+wqBOvf6Efb7iN1A9xgOEvaFznL6fSg6+hU41vmUECD4SBYc7G8BjvhJaBb78zHA+fvKQPpv6tL65+aQ+NmsFPpKfeb2YXVm+keM7vvREvr2AF8Y9/UB2Pvprur33vsI9fmeuvW7YN77hsgm+Jz98Pabe87xpRZ++xPmYvmQUmr579G++IjiWvpA1or4ThfI9enQLPpxQ3b3VYZY8L1R0Pvu9jT6uJOa7XCkGPhSear6MNA29CBuxvT8tJT4eJGq+Ono1vsO5hr7e+Vw+YLVZvlB9b76dhqM+dRh2vRHYmz3tkmk+Ce+uPoi9v71C+IA+qUxTPlcTRb5Pg6Y+zNexvYhaqL77ZeE89u1FPTQzsjy1iXe+RustvsPpP70nKos+HmB8vr9ItL7/dfA9EeehO1sLVD5WAp69EmNWPuK7XD6o/7K+t2nUvZM1ib5k4Ac9JkdXPsiCcjwRara9BhAuvpAfKj2NmJO+GpiJvjkNH77MT9K9SNahvWrcjr57uhi+ZOYyvXa2PL6HkZ6+fFFgPUK14T19ECs87gTivY7cw7v2D0g+/PGYPUmpY70Qz+i6XWwMvnefh71FS8S708PevMOFXj7OUBS+SwgNPriwdr78YIO92f7lPXpZCz2tZ9m+R6UBP5X51D6fOJi+CtDpPnvbqr7thKe+vu2mvnDVwr58Aq++zCrPPtSXjD4/Auc+wo7rvipu9r6JN5c+8HXfPU2JC74y0/u+JWLyvjQu/b6wA9M+fRrgPtrk2T6Pz8Q+hvvUvq31rj5+6/O+rOj1vfj5x7x4R8u+iPuEPpcveb5l9t2+KoravoWa977kOc8+u2yzvt5uBj7FXOe+ndbMvtDnyT5M3QS/f5kLv5mGhL70LfS+g6/WvuzQmr64VZI9C0/GvowGxT1x7tc+dj/mvuyr2T7vXOw++RBuvr983r5sXZI+UUrBPjd5ar7zb6q+kSrCPqbt1b55k8u+8zlpvo6ZIrw5eGY8YYBhvfIc3Lzneg6+pRsavg6bs72ZtoC+xKNUvXRFoz0e/qa8vR+HPhsD473fIyW+p4ZnPS6BJ76LAZU9LCmUvVqVmr5WNqe9t2r/PbRb7D3r21o+okYzPp09v7zocCk+IGjhvbjZwL1Eyc+6oY1vvq6uBT4wF669dQwevppwOr7zHwy+B8dOPryfUL7bzJy9K9SMvmgqe75tJYo+r9Itvh13Vr60il69WrVCvn/pV74hyAi+Os68PZj6Cr6dsi2+nOiaPl6jer6XNGc+8YNLPpdiML0ebDi+wYNYu5kyCz6NeNA8wr4cvkaHCb1coQW+QZdhvlCVhb5Yp44+2VOkPqbBHr5yH4E+bmOcvjUTC73heSO+qgxkvgmSab7lglc+q7mrPGUgvT4guYm+aumGvuI1Sz77Y/A9vYaePQKrlr5uQ4e+rkaUvkO2FD6UcVA+rkymPimSOj7JvZe+eFdsPiIXm75zgKE8ccc7vqu+q77uL5I+hM9bvhZUn77fzpW+KsGWvinXpz4XoJK+WS6JPrF3g76251++WZK0Pjs8a754YrW+N9lOvpr8lL45Ja2+yxHDvQ6GDb7sXIG+q+wZvs55ij7uPYu+Md13PvCMhD7Z0AW+qoZvvumANT6MmYg+3OIivoGvF77S2Hc+KYCGvm9/ir6jmpY++uXYvuvCkL1eo9W84HbqPI7mur0nNoc+MmrKPpWB1T6KoUg9ltrRvbJ9i72g6b69CfSyPsOu8D7yTWw+SurEPPPPjD2QM0g+DsjQPv/ZA75Wou2+TRqCvpr+274szGC+ZCmSPgFJtLwD2Kw+E11hPu4kLL51Tbw+/BwTPsLmkL2pm1A+N6m6PCZArz4ZFgE9yfGFPgnFTj6Zka0+xI+jPtTturzz9NQ+GFTIPlLHEb4aF6w+0oYxPvFBMD4w2qa+z6gdPmfxfjwCUcy+Vx6qPixier5Qw5W+dPpPvp+owD4EoRA+o55YvN11gj1nHZI+0ZFUvjKUnb7Iw0o+AEZpvjbqoj6ZIZ0+JluCvh2GmD5PyYO+D6SFPqf7gT6JYx2+kNSSvoaoqD7liQ89LY6iPh+q6Tz3dZi+xteOPo3yED5g98e9MUfEvtmGVb5pZbC+Lpyluikfnj7LvTY+Fd+ZPg0Ljb5nJqA+hfSHvt+CPT77cY494FiTvuzqCj6ZPsO+k06TvlGztL4d3KK++0k+PsGdqb4qQNU+gRSRvhsBIr5QKYc+uDVuvplPer6tS5e+xO2ivuL5eL6jxUe+dJjGvjl7pb7S37g8sP5rPtUigL5ATGQ+PNKRPjiKvL7WpJO+iLmDPjcSgj5e0ka+LA07vnZBhT5drLi+XCqRvs9ghL47x6o+PlWuPvJJt77Wm6Y+XsS9vgYvNT43xf09TjhFvvZ7xb4je4E+tcFUPehepz4vdTy+ZsmRvv1ApT76Oh8+yKSkvQYluL6I/02+Vmm2vpYm6T2biJY+3xapPrgGcz77vaO+2QenPtLvrr6lhDA+gk5svdUBzb6Vq6A+5rqSvqwM0r5lOJ++lDOnvsGAhz6NApO+McmvPsY+mr7F7Gm+5UbCPrzKlL4ctaq+432qvozAub4mOb2+7xYQvuNqir7bW8G+4pu6vVIwkD4+iHu+ngyuPpXAuT4PmXm+uJZevnQpWT7dvpg+fR1AvkTSNb58aqk+VAnTvveidL6YBXK+7GrdvY+CAL6PdAs+xZegvSphZ70Dgne+qkZNvsA3aL4cBRs+vPUEPbz6w7u2bZA+T44yvjuzFr4kGNQ9HDBLvhwZYT6uyIO9n7mtvhagAL6ZMGY+u/J9PGHnsz7yZwa9wGQRPaWZxT0WSkm+PHAGvkxalr6j0hi+du+1PhlCib2+p4y+xBdKvj+uUDyOvLo+9lMvvtMXrL25Rm2+80huvjKiiz6paLa+eUGbvl21fr6C9ZK+FkG2vgXeorxRpGY+R1+yvK+pdb5abqY+r+B8vv5Fuz5fCtA+iXvGvYtkZ77/LTm9q26MPd4Spz0uc7S9NmTmvTe7aL4ZxV6+czqnPQmqwD3/qBQ+mNBTvu12dD61YKK+Ajm1PoCgYz5RR2E9dW4Lvlj/DT5+twq+myW8PYT71z0MxAq7MpOdPp4BVD7TxU49dl8rvrJnCT4WnKi+hp4XvnvX/T22RzG8DAKJvIGcFb4Vawc+8cPTvaOENj6ESzG+bQXavWbAKz60kCK+arIQvldMcb6OO8W9pQwaPkiBQr5nznU+zkooPUlg0T0pEbY9nF+qPYUG4b26716+OVrhvfVSS76LWq0985yivi0W2b1nYMm951tDu4BOQT2DtBo+s8DAPQO/ib7JqIC8a4wgPjuyHT77ew6+8P+ZPQN0FT5wC1G+vMx9u4+lLr54mpo+2u6dPmbMX75f1Ic+Wh2UvuuaPj4jg/A9tpsqvvk+lr4K0l8+PgbdvSuddT67ZIy9BI80vju8bD7U4+I9RzhKvjwfnL4laki+z1qOvvSjMj2v0Is+SCAuPo+odT6FkJu+ewOHPtgvb772608+OyoOvQTbtb66ek0+9NRovuKRpb7OlF++ThKZvuWSMz5T1IO+Pi6gPsCtnr4YdfS9ZcduPvm+Vb55CUa+ugxpvlmnkb6BrGG+qhIDviAPbb40D26++7L/vepGhj6tfX2+kp6BPghSiD6YRke+utlmvqzMOT4lBHM+HII+vhR83r3xXJg+Np+cvsF+cL4H1pS+SCYHPqMcQLwjFam+LdYpvuAXAb1L6449DTP/vftgRL4rB3O+KjNsPWsnEz6NW2M+9LuwPuec5LyiQ1U9n0aVvryfpr5mKXg+ryZevhTekD4brYy+CsSfPp5pAr5xTKE+hcFjvi4bID6PL+Y9mjbMPdczmD5OGY2+0SI2vtxfIT6fIsu9T9dWPmMtaL56VFy+FQSFvTcF+L1lm8a9FcMDvkLUIT4M/yo+O8ClPqj1MT7Y3xY+AmHoPXl7Rb43qOk8PMutvosDPj71KlU+p0SGvmJzTL43g9q9HSjNPQ1/FDwhljs+/c6DPuSrK77lZ+09DarAPkFCSL1gfYa+TtN5vo4evz4Mu8u+bRGqvrPJH72oZJG+dii8PlHxub6PbqG+xXs2PgEKZb7feZQ9Wf7LvoMfEL11Mbe+XEeSvsyqOL2O3n++7xtXPj6fsb4wVYw+rhoxPBxvfD615Yg+AUmWPpOi9T3MfsG+sStjPhbsMT44pY0+d1OPvjJPr75zlG0+2MeRPmMhkj6FIGi9mUeavoCYjb5CpJ6+5YyoPrOTXb7UhuG+413rvkzxhj5B83w+G0RuPR2ykz7Qecm9pNWvPvGCeL4y4Qc+EfK5PrEgab6egnW+EI0tvmgNbD5mwL2+eWaovsR+Lb5jsBu+14NsPq7+gD7wfeA+cVFMvp3khb7w5/c9PoDXvdxmeb56LoG+HA8IPbivf76NeIq+dFievlRNAr57JRq+5JNfPtWP1T3rwwI+jVvvvUJoQ768bq6+1YZbvtcZmz6p4Vq+iOCJPgCkjb3dAlw+55mnPZSKiT6MvKE8mVL1vDhNIj6NIuc5eWegPqF1ML4Kgk2+smsuPvdWFz4y1oQ+i17hvbbVTr6Lgle9oyFbvlZDJ71vHYe+TUQjvY395L2adlI+AvtpPhcNHj7ASkE++PEKvthjeD6Deyu+1eACPjTvNT7Z8oi+Re9Lvq8mAb7BAIA+qLVbvTGiGr1EEf67+pAdvrOIED4zRWw+axR6Puanlr6jBuO9uqr2vKkTtL5F5Lg8CeNsvssxl71P2QI8dA66vtuYhb7BQHc+Fi4Vvpkecb2DRZS+cBeqPStDob1AsTu8GhGCvhRNpT12ZXs+WPOhvri4Vz7ENya9T+fYPIF7Gz6IL5E8ZaqFPiDne75COg8+R5kRO4mW87vvooi9OTrcvJ73ED7EFZY9MZMOPudUaT5tUAK9WidcvjzZFL6al50+rUrnvbEEVb4hUIK+IU7wPdwe6z3FhEW+X/qhPIqdrznQNYw+B2r5O5UN1b1ig50+0BCGvjae8z1oCIk92jU/Pqz5db49zT++d2BmvcX9Vz31510+kPdtvambiD7iS029Xx2SvjHpv75q2PU+nW6Ovos0sL7KCPI++/vBvveJkj7R9zQ9gH7ivvNJUD3hnqY+wSH6PrIH4j7AKuY+O/U7PfpwAb90SeW+hDHsPtnSAzs8v/0+cxn/vs9lrj2L9O2+CraYPt6k775fDqg+0saQPsgZhTwFufQ+nsfaPULLPr7Hr5I+dJGhvjd0zD7yorW9rrKNvpHqsj6asHi+lZPAvnPNC72DX/4+m7QMP/E86T7Wc4A+hb8OP73ojD7Fkn2+VFgBvZswkr51SJI+HLy7vsseyr074gK/kngKv5rmfD5+v88+XLOkPjpP5j0XSey94wOsPY+dhz6jaZK+rMakvp7JhL4rDLi+hvevPjAWjb6f/rG+XWHrPr4Ftr6uWWo+OT2LvGbkxr4Of6w9ggSGPmyvzT4Yd84+YyTVPnlFSD0LyOa+5lO3vsW26T5ChLS9qC/TPqBOyb5iCVM+jMnFvrSRqz7QyL2+VH2GPr4okD46+ay9bzTWPlYwzL0LHAi+r6pLPj5hnb5R6ps+x0+pvWwegb5qEKQ+93IpvleKiL4qZ5G9shrCPnLqBT9QZNo+XciHPlEo1z5mNIY++Y10vjuXVDvXjYa+6f5dPhraSb7IKQK+Rb3rvo3i9b4GdJA+rPezPkiRiT6jhAw+M6Y0vijl2D3buV4+JP4yvv2bkb4CD/663hKvviyHtb2up9s8ULJTvvPzIT4C9NW99YQxPZhOAT7wPPO9h7kTvkCh+LxY81A+pRF2PmFJrz5sdBA+V16HvuOgjDwF6qI+PDegPcsCbT2vaoG+JoQKvqSNPL4fGYa9oXLfPW6aMT1Fvjg9wU24PX94tz0XESE+TK47PsJwtjzlcTe+D9YlPgh1jz6GGgk+f4wcPoYHS7xPDp89rOLQPbwigj7PMJI+uCmCPn7UGL2XE1U+/6thPeIKsD1U1aa9+C6LvS0yUb07uim+wBDFPU92372RI0u+Hy5DPf0uJD5VtEQ9H3SNOqhFBj24GWw+R5uHve3KWb5/mY88/TQlPhn8Jr4Dyy6+LeQsvruxGT6xfWO+nt6IPsosej5VHYA+uI0qPnYEob1VEku+Ra5RvpTvjD4zxC0+C8+HPrXUmT6tlCk+sNK0vADzkD6GYlK+KDyRvgzGTL7JTXq+/Hwuvs7siD4i6mK98Me0PeAkOD5d+zy+hRlSPnJ4GD6LEze+93cHPgYEI75ipG8+hAQWPdnqmb1hAlk+iId2PnMLPT7VZBK+epKSPtOUUz5TX2W+Bs8VPqbeuzwcJ0A+MKqSvqv8DT2nQLi9fxJSvooJdD6MQy2+m/f3vWaWjb5Ug0s+7rOvvO9vsDwcatI93Gk9PhbeDL6bKlO+XQBfPm2zBD+v0ca+VkmHvsG3D77uVqI+cu7Wvn8I/j42AQA/cWbfPjme0z7Kabc9KnGQvrsQ075pVMQ+ocDLPksm5z61xwE/A2DFPpb24btC/QQ/4m7mvgQf+b6FSca+XgvwvnDG6L6aM7k+/ABUu8HlYj5yHqY+SZX1vnnK8j6lu40+yZejvnRnhD4VS4W+TEzUPrFpPj6iuWo+pu/DPpWi6T41H9o+r6F2vi+4Fj+kVe0+h/bNvmP+bT542Ek+2knBPtkb8L6ne+U9pL1Nvip0Cr9AqQA/HX7Jvvj0M75ghqe+1H/vPqaCZz5k/Xw+EaQpvhO1sz6SD0S+ZtLbvq0pAj9gzbo9Mxi5vhU6lr7iZm8+LOeAvqHV1D3vG/G9N0pUvsFQVb2KKKE+3LWEvsm3Dr6zpii+YQvMPJUyOD2nHCu+bUIgvgxwlT5qnp0+uxaivRP+Uj1SIUc9oY2bvnfnyD2qFZy+xaKbPvuphb7wSZs8xmsMvliLhb5c15w+WSaDPnOzO7xMc7k8W7HiPNoEyj6ibik+KNqJvEYUHr0BS8I9ct8EPQufi772nSi9hGkvvaaB9L3A6Nq84lfJvbvA/z0P9yU+4CmtPhD0Z77nw9A9Tt/4vGjHJD5FhzI9TnNnPRUV+rxD3ne+PMSCviQrWj4noVg9+PSVvumyTz7/hqo9P99GvrqMsb5JtJa+/WnIPoNnkr66SXg+lmmvvi+Vkb7s02K+YTumPp8Tib4yLwG+hOyOPjvO670GSqE98fLavb+TvL4LAcY+keqxPsIkt77Z++s9xAc4Poqjr74jylU+vPeOvos7sz7Nh0++bF0HvqVEhb6OzbC+9cqVPiYmkD5ciCo+M5CHvhDOOzx6hrM+mAKwPiKNAr0sATq+7woIvpliMr417SA+Ph6AvikueL4Z98i95D0tvoZzor4DeEw+3R2rPpmZoj7P4Ky+pyaqPkLia77WBr4+pYKvPqgoSj5P0Wu+9vVjvqkmib7VkWk+DNXiPTRblb7z1Sk+X94mviVSpr4UoJ6+1QCCvjCisT6iqI6+gdlqPvkMp77Vx6i+JnSYvmrPgD5eaKa+hJetPF50Uz7o+X++tu4yvnm8S74tM8y+Up5vPiBtgD4djaO+5C2aPndPoT5HD1++cjGhPjE+EL7dDJQ+EnmIviRgIL6k6ZS+hik6vq9l9z1V/Ys+7T1aPmpuFb7yMoE9kph5PkQ8oD7+9l+9vQ6EvgfBm74xiaG+AexjPRoRsL47c5O+BP7lPf8wjb6PrYW+oBktPe53rD5dgJw+zqyRvq6fmz6VUpW+C7ajPgCJnz5/z4s+eX17vgf3gb6pbaS+94hZPlCtsb2J7Jy+c/GuPoTQrL7gaYy+OtqKvjjPlL7QeqQ+Y3qDvtGKgj76cs2+kKutvrk5r76rZXg+RKGGviwSKL31ZWs+mFSNvugRIr4XnlS+Z0SjvgSFeT6uOYs+iCzFvpvwmT5lBrg+gU19vlyIsj5bWgi+EgyjPhcPer7QiyO+Kt1/vmbmdL63KkU+AhmRPvO2Gz40kwC+bRf0PVvDiT5HgZk+eMKwvc8SmL6LKJu+mXGkvlzTCT3LOpm+9wugvkYgdT1oklC+HV9rvrcyjD26h5o+ddyoPkSrk74Gwbg+o6ugvtJowT7O+JI+AzyDPiGZa76XHJa+/LOJvpeEjj4+p9q9jf+Lvh94kj4hD4i+mwqtvgfJ+74dAAS/rXzvPsxT9b4dQMI+e979vlv+C79BEOS+z4UEP9FP276Oq829XeNfPhdhqr7P0Je98d+pvm4rCL9A1u8+dMzhPkNnBb9QIeg+YAzgPjCr5L4Ypt4+GNKMvneF5j78S8e+UhsfvuUTwL785bu+DTy8Ppnr4z60EJc++YX9vRF2kT71Odk+aObkPirgV7yag+y+ImFbvq/Izb5uIKq9oJPCvqD/z756pSy9dUysvq7lyL4GWsc9q7gBP+dc4j7dXcK+K/vvPmCN175K0+Y+RG7iPp1EwT5yfp++SBTzvvcf6r5YSsE+JyjEvaBS7L69HOY+C4qhvlPlR758UIe+6AA/vpIblz6Cnxq+1o9JPvdNjL4L4ZS+xcCHvrl5VD5lJ46+L/cavsD9SD5LNOu990xAvbaWIb7+6IG+6cR5PpNDUD5VvHK+ZxIwPsj9Lz7D5YW+nmJsPknBTL5Lx4I+z6Yjvh/ZFr5t3lO+MB5Tvhcawj1MBl8+0CkFPr/b3r2Pvoa8MgZIPu4YUj5rlQ++kGMkvkJeFL7o1k6+cWDQPMQVY76rYSW+P42EvCv+nL3VIUy+8UEcPk1njD6BuYg+YMKLvkXKaj4FHoW+ummDPiBGHT6c7TA+qRN1vigngb7ceDe+Tm4/PqGpPz0WM4m+uF1IPizQYb5QfrW+HX66viJSvb5Jo74+tm+ivluPuD4PSdm+M9/kvnuUxb4FicI+uDm7vrNZuD15tpc+Nt+kvnr2AL4DxIO+04rgvrn5zj6mXaU+iGndvrGhoD6ERLI+2PO+vscBsj5bgVe+tfnBPvGmeb5Bxe69ttCbvnZ3qr63g5Y+z1GbPnKNbD5HGzi+uPczPoRVxz4ssa0+iaCMvWZ2lL61vrC+YqnLvkckgz1NVN++bdfMvmlIaD06dZG+t1C0vrcT/rtGIr4+lRTpPm+SfL4pGeU+gTzTvoKC0z7S2og+RT+0Pgpmsr707pi+o/Pkvvuggj44txq+a/TYvn/Hxz4RJba+z5acPpmUlz5lP8M+Nbs7PgThiD42v7Y+xZ+nvjQXpT5obku+/au5vkSsGL4x1Ck+r0ZDvn3Dt75y+9q9+8hMvuHbyD5W54u+3eajvhU5UT77iDg+LKqfPgrvwL7SVaM+CheNPtKfqL6uOYO+QOm3vjmLdLyW0YI+QKjIPoTyO75wVru71g8FPaFJnr4IqZi+Q+BlvlsmlL0nC2W+UuusvnhdKb5RZqq+yRmTvm+ZqL5fbA8+YaSGPrJVMD1pm2Y8LklfPq71sz5zOy0+kQ99vkLbyrwJ4Ie+7ryNvjNcUT3SOOm9nyVzPZpwpL7Xb7c+gKd7voigyL5h6qc+DItWPr0W/L2KkFs+tU5ePjyRB73Yr14+OnJyvu3oCr7udMK9LLkbvuyWk73VWjE+IQy8vUkaQz5BTXK+I05avjWraD6sblE+03EsPvCai76IbA2+Fu+TvnH0ZT47gP09QOKIPnhNzT1p+Um+I4TLPbOgRb7Of2U9SaefvpNKF753fYI+6YNevurxXL6nDIa+pSV/viYBmT4umoK+MfEYPnF7Rr74qhK+Z3VtPhWhib5R/oy+7gY9vtT+kb4V2mG+ea09vGJmur0CBdW9x7j3vZBhQD7PI3C+28SRPh2Whz6cBDO+FNpCvkKkzTt1Dxs+zew5vZ+xLr5AsW08uLRAvkGjQ77DvKM+0+WFPgMIjD7PUQG+/KCOPswLTj6KzrK9oMyXPqE6mj20fkO+w0anPAnAFTtV9oa+TXaCvqvsK754oiA9mneQPn8/Lr6Izoi+uaxfPpMaVr19QGI+GWUWvk5iPz4aEjA+/lqVvlyNL77//DC+iRgHPqJkMD71VoY+KnwKvjTN+L0V1Aw+4TGIvgU/YL5F9Um+QjAYvigkU70PNzO+dYL1PGIHgb7aeHS+Dt1BvowZZD02SjE+l+SGPRExXD2XMUC+4IRaPs/K3z1yaFW+MUccPnSvX744+Ue+Ud5TvtvcHr7uPWc97Okjvh+59T3+zyW+v1vTvbTpHj5eZ0k+3uX8PQqCyT27nNs9E+6cPg6Xaz2RbJo+uLafvoxbIL0sio2+1QKsPH+/gL6pHCg+B6cYvuYGrb60cAK+OXiDvozNDD7TZEu9pWBZvvRSE77VnsE+En29PksWrL56YJ8+nFcPPr7YPb17ebe+mqODvhQcZ75GKUY+eYKwPnb7Db6+tQo+wcpJPrAEAr5Cqz69Yai9vSS327yat5a+I1uVvqm+h77P44G+lGSEvlzUq76PgVg+X8QNPv2pKb1Xo1q9ZDOiPiyVqj7Qink9w2G9PSoXCb5L+e+9J289vl1iQT7TLQi++Q/+vTxzxb4bGpE+I/Vqvql0kb6GV8w+JRy1urZeAb422pc+j48RvsLllL4dqyy8Vm/DvfdKrz12BzS+JfN9vjfeqj16eWC+3RdGPMimpr46A4q9MQ8rvhD21b0uDyq9Te8wvnoZHT2IJ3S+AbGSPspbtD3T4bA92pk6PnJBbz5sHU094GV4vihTg7xFpAY+VnR1PtomPL4HQk2+z90KPmq7Kj4H2iE+SkmdvYo4gb4AjBS+Y/57viIWED0X3wG+Di2evgqOk74zs/I9j1rjPcw/dD0Qmi8+H9j7O8BRiz62vSu8PZaru741Zj4dOE6+lkJzvvhsf73AKOM9QkRuvuj1b74jzQ++7llMvbQcrz0EI1Q+QFmyPpS/9r0cQzK+TYi4PqRhmD7v/oW+6TGXPr5gv7z/tak96CikPtJrRr7tCo2+cJBLPoZqQD427TY+RjJuvu95Q74EzAg+dmKiPi5Tir6St66+SzzhvbJTJL727D4+7ktVPj7ZLj5v+KU+uZKBvvzJAT7UaW2+RBQpPXUvkz4vJgC+z1gfvpTANL7mm1G+5cZ3vnA+kL45Enu+bhRhvgO2uz1ReZG+cYQbvtXdHz5FkRi+6vCPvgQes7zw8uK92hwUvscoZ74E60O+M0IFvmoSZj6B/9k9U0DMvdcAmb1RDiA9JalCvqw5971tK0A+xM4dPilSCL7UPje+7hwyPtQXqb28yTu+AE8KPjkPsz6iUcQ+p+qRPZSXqz4lDI0+sgaYvk3xgD5Bl6O+EfSvvm+nGb7i0HQ+BOFcvujLvL7FtEe+wtB6vqwjvT4/B6W+/tG0vtQiZj3G2Ys+FdeZPtdjub66c7g+OjecPgqcqr6w1ZK+nEOqvtsTCb6JJqY+qVWaPi1knL5p4pM9IXW+PQwehr7G46O+bxuCvvnHHL4Nj5G+Y1qovtgbgL6QcI6+Lqa1vnRkzL5MJXE+CgqaPlx97D2DJyO+KaqQPjWJrT7ivYg+C4VTvpUbQ72wTam+ePGtvtteST6s+0G+tQWivXumwL79xpc+mUh4vimzmL6Q5qo+0tixPSIdrrz65wg+5LFDPnK5L74MmEY+dwWIPJPSur0lPyk+i90mvkqwV75JkKM9ymBDvcDhUD6ESL+9Jr0TviGs6z0myyk+yycjvTGhZr5XHsy9lvsVvpboKj6IYos9xnl9PloP5z3aQ3q+mtLgu2BGZL5a6ck9MsuuPcvc971Q0889N0ASvuOZYL6BXzO+sDtSvqiROT0wqES+2TaQPStPcb6mm5G9eLa9PVXxS77hZ4y+TsYivq76o72ahCm+4Fx8PcUT5L2wLTO9/HINvp0hiz1KaxO+Vr3jPPc1xz0s3wa+tW00vsAuQj2t5DY9asslPbJWFL5thQg8b4YGvsgOGL4O09464EYFP9KO/z5OHJ8+p6v+PvMLBD/9Ff2+nhiDPm/j4b5OcMC+I9l/vnJ+oj6ocOW+5N/vvi0H176PzNi+ueAXP6ew4L7q9u++G3JDvkKD6T4vdQg/xsHjvgyP+T7IpsU+u/HTvmUoC79EYfy+pnxhvtS93z5Ri+I+9S+vvkWdNj4DcFY+Emj5vsZG7b5ls6++qB2PvkZz3L70fuC+/mmyvt+cDr/6cRO/Iwfxvq6wyz7iBKI+Te0oPczzS7796ew+F+T9Ps2Zlj4GRwQ+1E6XvrFlpb6iCem+LiOrPtM+0L5Llbe+2LDZvrMZ3z4cMcG+ga7evlwZEj9zEIm9tr/APhzylz7hcaA+9845PnmgkD7i+oc+/JttvpOWlD66x/49vgcXvqRKhb7AElq+KeCuvsiMnr7f4sc9PFLlvS5PyT41NGK+/66zvnqipD43yqc95KmTPj6RsL5PeCQ+ZXdwPf8gS74pobO+HEpvvmeOJD6xTyc+XEq9PjTWQ77rrlK+mL9XPiQpqL6Y72K+XqA7vsvIgT2PnyS+WmcsvpRcHT4zR7e+/sgwvhAilb7VjOO7MPG5PoxUCj4KAIw+8tmMOw/WqT5Kwpa8DSS8vu0TkT6dO5++QHySvhjZar4yl8S8LEJNvsjivb7n6bk+m5EhvhyZ1b7hYZs+FcWjPrE/wT5IZpI+57XQPnAqZT6wrpg+pD6oPqkxfb7kOdY++/eLPporSL7WXYy+2iosvkFgor43Xbm+bO9RPq/Jgb1vYtw+QwExvhaOx76LKcM+65wVvVx6qz4pfMi+hXdPPkbUwT1BLXi+pv2NvvUsi74eolM+vKofPm5gzT5j5QS+0iKJvsRLUT6+Ha++//ufvnXgSL6qphQ+zGd7vewpM74qZg4+ZJLGvsnktr1Uu7C+bNTTvDZM0D6t0yA+uFVdPtAmKb5o0eM+KMVEPQeds75/arg+UuC4vgZDvL4ay3u+bh6QvMBajb2gbae+ak+pPt+NCL5vaMu+tjKLPvqBsz6K15I+VKjOPIjMAD4/0JI+4fiUPaMvrj5/Y8a+p0dXPf2u6r2qiwA9JU1fvl6MYL0tAS6+LhOmvrwqQL1CM6W9wvqDPvhhvD1NaIK+BlfhPK1y3b0Uw7g++oLAvsUysT7QopG9wnZ0veIAW74+k4O+DUYNvpHctL3CYa4+Guu/PbTJ6L3SgKG9x2CQvryxK7yBTUU+gZ9aPGMqB740c6S+kG/vvdoADb4zJJi+ApO3vvS4J773XHu8Dv6Nvh3iKD599SA+rWHQPk1OEb6EYUm9fVAsPcGVHD28nlk8UqSGvYJMN77i8AK+YgGsvrTFmD757Yu+R6WmvtNyBT4RTVk+ncmtPUJQQL4MEmS+FnxTPnd7Ur6AW0o+Sd9evpfUU77WBVa9dsWBPmecVL7wTdq9S6ETvueEFb0PS/49HNMavhqORr5Jzy4+43idPrwadL42gUA+oz60Pe2lIr5uDpo7cfoqvhe2Tz6dj3O+wsrSPcqfWr4dZzO+vdSDPl4H4z3uFLU9GrsHPFjXQz5ttWc+6R4OPgjFxD1luf29YpM7Pil/tb1I7Dy+g1aIvLNiAT7+F8o8pZrFPDcYPb3d0Rc+GSuBPpv/ij4QUji+419GPjCsB72NRyU+CCwRPr8dTz5ZeEk9X8UYvuVGib47FjY+hI87Pn6UU7719Aw+9vZgPRzvhL6Jxmo+3pGAPteD8r1N5pA+oNFmvpPTDL5iiQO+CIuavgbsZb7IJoA+csu9PGVmiD4XKIO+xy1vvkbraz7F0SE+53AjPqjTm76F2Ea+XkPGvjR2jz4LM2c+cqWOPniORz47M3K+d+xDPgrmmb4gnk09r6CMvnkGdL6bj4E+YFCbvnECh76RzK6+8baNvonErD4Fuqm+FF2KPr3ho74MeQq+eVdpPvIWyb5qBq++YwWovtz5lr7cHo6+l4HwvXHFKr4Aqme+yqcZvuqinD5E5ZC+KTC5Pj5lzz4gsH6+Vx96vlAloj2xrk0+Y+P+veq9aL7at989cG2TviUYgL6Zaaq+OfYyPjIynj7+1YG+pShnPgFjv76qKYy8IHJyvggbb75dqYy+Mn2CPqs6CD49WLY+WU4avv9TbL4UW5U+/xANvj81Cj7esLa+g+eqvohd0b5Cj1o+GU2iPjHanj7eFzI+2jl8vvYhsD7+uY2+30jlvYSubL5BdKC+ww+gPgAAkr4fRaa+r9iSvvHMoL6x97E++HqFvnl6mj5q0ra+wqWXvs8NwT62zpK+8zK4vscqlL6xfsm+s5K9vmR+J75Osmm+/4C8vpOyHL3yfsE+VHe2vhta1z6ozcw+9pl2vnQ2mr6j/1Q+IfCWPpwvf775TXO+KXGfPhqTwb6EL5y+d5gtvu4hED75cUc+ZJQ/vh98YD7qhFW+nsFuPWWKBz18/Q++lbFSvuhRRD5GgZS90A9UPg0h170Vy0S+yO4LPlc9DT4pIgA9qf9WvqicJ76u226+qJcjPseoEz72M0s+L+XlPVsIMb5e0Ro+hslbvurqFD7xHBq+XPFbvil0Lz5aw1++v+U0voNafb7ZsoS+HrBVPrwHhb7MFFk+z4tWvgk87734q04+E0Qzvio0b77f42G+Gwp4vpKRf77pQOO6UPoVvjTqP76Y/wO+b1Z0PjfXcb5ui2A+/VxqPqMnWb7P6R6+Qw1mPS8OLD4Uqsu8vcg7vZQ3rj1++oi+WehtvtWZJr7U338+SDvmvZ7Bhr7wZdc9ZEabvo/Bgj78bIG+HBwwvnW7Kz1jjdQ8x6W6vcJeP7365ng8tDM2vhpATz0C7RS8siE5vh7Vsb2mCTW+prefvHc31r2cIk8+9SvjPZgCAD6hmEM8hbEvPReDsby9qjU+KFMNPYJwmL7dYnu9iGtwvYfBlL1HHL+7kGOEvbGjy7ySdJS+Wqx8PH6caT3DZ6q9dtDNvLExMb4QcPk8U8xEPJg9Qr6SXh08r6wzvdRERL3gUj2+oj92vfnyNj5PAyO+78zNuD+76T0H4L+9Lcp0vvSY+L1rG/o95uEpviJUtT24/UE+1LgSPeiHA77cQ6y+0tTbPoOZ2z40rM2+z4u/Ph5Vy77TLcQ+PpCkPjEuR76zeua+iHXRPhDpZz6tMKQ+6bB1PY4DnL7BcL0+DBCyPi1Evr6nVMm+74sGvtbgpb6o4ay99lKrPpZSgD6W4b0+yc7GvkTyvj5iBqi+DsJqPkB5qT7C/8W+GSvuvY/wtr46N6m+8xabvtM55b53zQS+kWW2viOntT7XnaK+a62Qvh4epD72v0++AC1xvuCFb74lHHC+sCw3vr3lnr7TFL6+0FPKvlvapj5zEVc+J0WlvmZpGjuLaBI+qLCVvjOuZL5jK70+gfS/PiZCw74myJW+k+vSPvbe275bkKe+BhPrviYujr5H/YK+LCiaPuiDtL4HO3c+/7m1vg3Bsr6Uj6m+KwiQPsDqJ76uiNy845J1Pm6/jb61AWO+m589vn/q3b7+DJY+8O14PsOXvr5T10g+pIugPidUK74zbbA+jFfyvc4rdz6JJlO+u8UNvjq6XL6XMK2+zUmgPbnDmT7TWHw9slI7vjmvtjw5Qj0+XnOzPuM3+r1Q7Fi+mFyVvl/HoL7wJtQ9wFPJviZVtL5/UTy9BwC4vnBbwr6FFay9xA2zPieHej6X1Ly+6PndPgdA3b7KveM+eTquPmD3Fj58v8G+0mWJvsnxNL55rpA+NQCZvQEQo75/X8c9iBS1vvQDcb67Rio+QTQ5PhFNXL6LHmE+TKidvgVuyjxwvRq+9SWGvlD3hr5b414+sPnJPPeEjT5SlB2+vYKCviigVT5Qsu+9zbdtPerUZb4dnmy+hyeUvpDEFz63cVs+EPpOPg3kaz4mnEG+q9+BPnlFib4Ylls95Uj+vcQvi75hSoU+hl9XvqjFlb5hEoG+1G5ivk8Jiz7KRo++LcxdPk5jk74PHGe+HkihPubnS76ip4y+a5Ntvr8ggb4dRou+CKPIvZIUzb2Mv4a+L1AWvtKJiT5KK3++o2OTPgKclj5TvvG9L4NDviGSET5S9IY+tNPtvZZnBL4KoH0+EI2QvqMOfL7/ZUW+SBNHvc/aL7xcPYO8xzYavRLSbL3HmjK+C7sRvm+Gf75PrIs8T1KTO81+oD2cj0s+dbyKvManxL31cWu9hKJRvjZLLz3USze9pq+bvjShhrxGfLE922kcPQcCdT7Nn8Q9rCdaurHHwD2Wzhq93gOfvWh4xDxHTNW9vATNPY03vLx2QC2+3Z5lvaJjpby9F6o9tgKFvTfsJr1pP0O+47KCvtCOBz7z5he+paAhvlsVTT0e/6+9ilzpvZqjCr5CCyI+9buHvYg9/70/eWQ+sZaNvsvfRT4ntFQ9D+m1PcOkQr5qlIG9BA/VPHxfTz04Pu29kTn7vLLX+b3+ZWm+eTGavh/k3Dyn31s9as5BPY1q4LwyPE+9onWRvh69eb4lXqG+Qe5fvSA+ET1pbxU+waZRPlycu747W2++4G2lu578SL76ZVk9QfTlvfq5rr5evwG9tkWgPpmcKT0Hxa0+U2I7PsyeujtO8Bo+Qo96vtPrJL4s8Zo855cVvoMmHj41kOK82FJbvm/+Ib645fC9j51rPjoWDr4Meue9fKmKvghEfL6biFg+DvaBvvmymr5B7bq8OEdWvrm1a76CuFG+as4mPrXKBr6LLp08A2G3Pmayqb7hyqU+u5hSPrBC4D097pi+3PcYvbTOFj6Bl2Q7yC45vrvUgTzaO9G95reTvliGFL7mrFE+n6lXPqW0WL4YjVE+JW1Vvm2qLz7IpyY+ZQopvS9mOr4eu0U+O0SUvAe+Xj6Icdy86g8ZvsUdSz52er89Oy5avIl/jr7Rqpa8JMBgvqNDtjwWkiA+d3mDPUs5IT4/ii2+iygmPtlRYb6ufhg+qdjxvQPtf77nau09JVoJvlVdVL4Jbh++cMwyvicRUD66jDO+0d0/PkhLYb7qb2i92P1nPnmvt730JyS+nKQXvsCWgb7icBm+h9AevPFmNL4vOiu+ln5tvVLSCz44HZW9YLphPnyQZD5VLUi+PS2MvQlaDj7WVGc+4eOsvTMcAL6twAs+WlmSvjinQ77RwC++t0yZPiZVjz4ISY++jI1QPpt6ib7S5ww+gzK/PXcLLL4HWIm+ZVYNPls4Wb0BeWg+3sGkvbdZE75k2TQ+hd3APbjfP75uHmO+DqNHvrUKgr7HWc890NhOPgKOTj7a4Hk+Y99UvhBCDz4X5Gi+0q+7PQWekj0Elou+pcHIPSRBJr4ICGG+knFpvugHb76+FRw+urcqvtI2Tz5YJ3e+3DGsvZINhD4By4C+Cfhevsb+1L0VLUK+U5lOvi7XM77Lsxy+YQpfvmCwDb1Ftm0+mWBvvl24Sz7k1S4+OQwtvtF9G7411fQ9oqYpPqHu8b3c6by9gCZ4PtMLT773KzO+OpWVPFHfvD3yVu09Ju6NvhTrjT58uGW+IK16PhPhaT4/Duo9TSgavlWIMz4mBOy9FPJjut86Jz7J1T88vWJUPgmxIz77YsQ6DplJvuevDj5PXH2+M6s1vk4hgz24K/y9yxHAvIrnzb2fANk9MTxfu3U/YD5wdAC+Rvgevio4GD7GPVK+z6IJvn1bMr5we9+930csPQXDFL65xTQ+fAs9Pa5jCT6HLsk9qwOtPS9Kb72tgnW+lgHcvfowuL2NYDE9UWd+vkTDZr6u9Pe8A7/ovNKjkj1TUuQ7Y7D0PXlbhL4DlCo9P6UTPmVNHz4kMRy+DmPSPermHT4T7pS+6cKlPYW4mryfBoO+CLgZvvAqVT7+Cyu+urREPmBwub7BXpO+6Nl5vrT2ZT5d8Ni970hHvcRAiz17CKS+axVFPRQyAL4pa0e+fw2MPgLnlD38H2y+iH7lOeXnoj4Z8ue9lCyQPjpf5b3Cb2w+6B6/vUaj070F12G+dbmVvuXLxT1IqaM+fBt1PW4e8L1p58i9jVIOPtKitT6lzz87T60WvlaKxL2PFnG+7nsUPZI0m74sSJq+s3uBvuVeXb6Z75q+pFfQPfTJkD5W0Q8+omKTvkfqfj4blBm+riuxPnSmwz4sias8gS9FvkVWCb6STUy9YWx6PkjmBL7OZ0++5lIfPWifEb3LhEO+VrT7PH1uP73xsIy+K4ZlvolfOD40p1c9Ks6dvZ2lTb28ISC+0NTuvTCcJj7ahZY9khuSPqGixz2HHe29zhmbvh0lcb7V2Yk+Xf+avaiyjD42gZC+cG3iPXzhW74yw1g+sLXhvO/0tLxbdzk+JJzLO10ukj4CHt698DFOvlnSOD41Jbw9h4BKPiMUbT1MdUO+qwvtPT0gML56yYs9FjnpvIsux70iOzc+MwqfPomSLz5h+4U+JBZbPhxU+L2XtgU+80ZmvtxFqj1cUak8pxQXvplHrr4Fvpu+MfVkPm0o1z27wsC8anSTvVKcX71ktik+03ZjPiDmCD7DOCq++6HSvdvWoT65Ft2+HYWmvmmq8b3SZaG+v6m8PtTok74iaGi+JQW8PjLtj74DuDy9M8jEvsBugj3TlmK+fCJHvowXODs4QaC+l6JnPq5PhL7WYZ4+ZEQyvjhfWT4Dm7G9p1hPPlaykz6UacW+2YaQPpCHcT77VXQ+sKKRvsyEnb4PjRY+ZuF1Pi3jYz7cB6s9YX+TvubyoL7P2zO+T+e2PrHYo7zQB92+hIRzvg3siD42VEI+tMnvPTl8mD4iIjy92gZiPllyab6hBjw9pDB1PqBqC75RzYG+gC1JvsZ1ID4VmpG+T72KviOBFb53+xy+bbh/PoEWdz5zgcM+JgCxPSZBA79M0o0+579ovrDFwb78cP6+Y2adPU2qBr5R5Ma+Ml/zvihNPr5bRpw8qqjHPl9kPj7TpZM+qrCIvuNHtr6eXwK/TojkvtwSCz9fCMm+zFgCP+z+dr4ApcI+bOYcPgPjwj5iFXy+3pTaPUJzxz7bj0u+HWQBP7ib4b48y6m+UhTBPqByNj7BAPo+CKp8vnVZvb7AvS88ZS/RviZBAL5HfsC+9XsAvBBSob1wVeY+MM/CPrrTiT65e7s+ovjNvv1h8T77cvy+7YWvPlk8xD6P6PO+ZELTvr1+tr7MudA+iukdvuj8oDznors9PmfFvlXAhj75O8w+dRi3Pu2C6b6nSvG+P/ADP65sH7+fIfu+EX/ZvswQE78rVwg/c5wTvwbkDb9+V6M+2BtrvifKij6EMiC//CCLPqvp/L70ggu/H+ztvqD+z75V8Pk+yooRvxdYDT92v4K+1SIGP4S3OT6bcOY+ro++PkRMDr9uQQc/f0TaPftM9j40jxO/tbX/vs+Y0z5zWwk/lJMKPzYsbj2ZeQ6/fRmrviT2Bb9B4Rc/iTnwvlrVFb/F2g2/XF8JPzki6j7/prw9zUEAP6Rdm77xvgg/0FsFv6dLpD7VagQ/528Hv0UZ3L485r2+tCHuPv8wAr/uyd6+UXPtvemxyr7jn9k+7kEKP/yzGz/miLW+MX67vuYaE74jQCM8wedSvqyNxL5ABXU9HV0pvWKOgr1+waK8IphPvmT/wj3B4SY+ncCkProZ1D4eqjs+QP/bPXN4xL6JOwa+l73lPujoMr7zg0A+dfO7vmNiez5leW2+hXgZPpD+yb0z3Vo+amNHPl4hnD0i2kc+0phqvvb5ATuYjCw+4lxJvuaRlT4h9hw9SNIHvsRsMz718069RP7YvcgjN71wDmk+t42FPr9poT7z/oE9NpdYPpJKhj3xLDS+lvZ7vUsmrb5OPEQ9XLzFPeEuPb73whC+o5JivqpEEz7XAiM+kRZHPuuQkz5eP4i+sCUpPrgJij5cyuu9Xoapvs4md74YOce+yzCcPmIRi740kZ2+896LPhJjab7RMJA+/VdnPtBttb6jLnI+jt4uPjmUxz6zJNA+PBW4PkHl1T3GCc++7sk0vgCx1z6uPVI928KgPfQExL5NG1A+yhq1vt+4Gj7iN4C+nwi0PsDyXj7az6+9yKWGPr9yqb1264Y99wMfPmOmur4CfYE+IJr5PBr2kj2Jl5I+hlfYPE3Pa77mBdo9K+DAPprT7j4HpZY+gQpkPcsstj6kSH89hWlIvof0Yr7c4pa+SFn4PWobQL4gCby9FWx7vuDIjr5QWvM9rQOePoN1iz5NCIk+f9iAvsPytj3fQ0A+0OuqvtEJb75As0S+wreDvhUZXT6sgqq99+WKvtBQoz57DbK+DRguPljvjzzzNKm+5qIDvQFMcz7fK7E+AxmDPubInT7Qu8m8/RW3viw/XL7uvZ8+7Tm3vemymT6//Ki+zc8zvXpBc74Xk4c+uzSIvrH+JD7TzA8+Fey4vYGvoz4dMgc+u+oevjAJJz7bv829RQeIPv20sD2LWEW+sf5MPgh7Ob5SEXS+dDEKvRrGiT5itME+ZhqhPoB+Rj4cta0+W2tNPoqIO74p58E9QFcYviU7JD5kCS2+7fUjvllqsL6WDIS+8/tMPu/Uiz7CgBc+dBcKvvm8Bb15I749kCxePdDNbj2XMzO+drXJvmoJgL5Z7Lk+r8B6vo4Y3L6STQE/Ke8Av9QkiTxDc0y+J0H1vhjIjj2clI8+iQbsPqBNvD4uJb4+kvUJvojb3r5MOMe+PG/0Pr85jb5D3+I+sL+7vkr4Pj6dRL2+TdWgPtaJtb5aYpI+QhaFPj+2a77rZtw+7IyrvcTRbL43hak+/hJbvkk+xD5GIym+wb6TvoL4vz5IFZy+z+y7vvdWnb6w0+g+uJICP3Gg2T5JipY+Xb0AP0iXjj45RY+++CqZPiA+qr5JzIM+JiQKvYyRm778mfy+tWb6viMbvz5H/sE+ZJqwPixRNb0xgWi+Qp+SPeuucj5KMaM90Tyfvp1gm74o4Ya+z1/9PoNJeb4pEL++25nYPk98277khuc8U1G8vYKy675OYOg9phSGPnU9CD/SlMg++N/OPjTosL0/UOa+SMO+vq3s7T4XjUe+RdLXPuYX2L79TSA+04fAvh4arD5rMe2+qCSkPmcrWj7mr3W+Lc3HPsSYab0ehTu+8X+iPozWsL5HaKU+gmwxvkupbr5+VrA+SqVzvoZb3L60S3K+84gBPzzsCj/+HcQ+2Yt2Pp5X1z6y32g+G3CDvin57j1B4La+fVebPjm3K70mDqu+XW3Yvve93b4BAYo+KznMPn8dpz6lNxo+PcVcvkMPFr29O4g+lV1EvoBcv77hCXi+c2mYvsvruj4WjIe+WdRovmCi2D4Upq6+NIeNPoFbhDsnTpy+kplnPv0SRz7k2Lw+o0+8PiahrT4/HnA9r02ZvmqNab5Zx6k+4jS0vS63bz61WJm+MyIIPvFugb7temM+TePEvrPWiD7S+7M9Xh7NveNpjj7mV4y9IgPBvYQT4z1fu6++pzZpPkPIa76j2w2+JAxqPiTLG74IDsK+7FDXvQ7K3j7rQcE+jg09PmvbJT5kr6k+rKyGPQgjWL6Z1LW90DiIvtcHRT5M4Li976VJvqxhir5/o5C+QwwwPp6Quz4355Y+6A+HPgNHD76v2JW9fR8vPkFMXr7X3ZW+d2KIPcLhq77uNjw9tSEqvmwYJ76ws189hXQoPmPRuD4qOok+sbD/vXe9Gz7b0Z28461bPn7Hwz6yDrM+0/QTPmO7L75Or5q6y6SYPqi8XT5y0rm8YbS7vrmTpr2Sk52+NYfGvSBOwz1BHGk+UabWPZ9tID5xsdG7StsiPpn/Az5ZJMi8KgURvnPp3z2PZ3I+aVQGPprTTz4NSr09dW4XPoyCbD4G44w+3wXmPtUVqz7Z5Ri+LOmKPrvVubuJAys7PHekvk4paL6LvNu8ehywvrZcGz7AVDS+6CkTvkfHAL60w7w+wlmCPtqSYT4XXAO+r3MTPixTh7y2PKC+C6GZPL/E4748u9e+Y+2qPv+7nb76yNC+D8OwPiuQpL5tkYG+0mHpvXet2L7pZdY+zDesPvJMDD9vbeY+CXDRPhQR+D2Wxu2+a+6OviKn3D4Bqry+m7uTPssi3b7pKOI+aLTSvilsvD7qy8++JvfhPvCHnj5iP5W+FBO4PjAm0b5KS1U9z/lsPqoZ4r5uP8s+w4x9vnpNIb5jXb4+XxXEvc7O5b4EgY6+zWsSP2DjBD+Ox9A+CDlqPm8quD6lKnY9FQ60vvOltbzcVgO/mj6UPg2bfD4jMsC+DmQ9vtV9jL7oZaI+tZvpPtzh5T4oVr4+OynCvu8dDT4VjM8+XPa9viDh677ytiy+rRq4vvIyt7vBWCE+8jy7vt1nmT5JPmO+LsgJvdwF/z3eRKa96dAfvSsEBj6SdtE+pGjGPocO0j7Ykis+QnXNvpKLBz6z29E+NX5lvbviCz3cFz++pCqZvD/oar5pyg+9GPqWPEjUUD7H1J09ZK0pviQrij0suQQ+7DIyPr2Hjz1PAqy+sloLPqZrrj1VDMY9Pn6CPn92yzvxkxy+vpUFPv1x5T6dKd8+ISRUPvbP7zwR22M+wmL6vepRsL1b2mk81ObDvYmWIDs6z+q9o+Edvc4Hwj3CM0W9Z+4BPU2Mkz5ulcY9eVAfPUEDT70Kkzg9q59pvX/uab7PRYi+zKGaPgb76r3hyhY8wUiIvjGLmj7FJ6C+AbWhPoLWvz5d3Iw+VdotPYo3KT1jhm6+/MGJvh2KlT5kLGw+nhOOPjW9oD4mx6E97kI2vgfdpT5DNaW+fOutvuc1VL6kD7C+GXSBvlVXOT7vNaE8e5HmPVTFlD6RLD2+4fMyPvVTFT7PTV2+rYzwPQ9mWL6ZNmg+HPeNvc+RLj0U65o+OSiaPjPqhD5JOVS+A1HAPuHAmz5mIIu+fp1gPjXMhj2e6UA+DEKivmEBh73yf+69ZjaUvgDZjj70mFq+0gU/vpY2e76BkYQ+EVcZPpTkET4BEie9WudwPpDYlTuGwaC+u5mKPla3hT7ROfS9CIJ1vfhve75nQkE+pVKRvj7Tkz64Vqg+Ro2NPhbw9z3PGpY9xwNnvm0edb6C2KU+5uYpPiTfRz51Q2g+rBDLPS7DAb6AC6s+vfRSvmFZmb66ete9NpWUvs3WUb7xAww+GPOdPSjF1T01dSw+9kUavn3HFj5krhI+FmhDvoeZaz0t+Eq+iN89PpjsY7xfQT09oEd/PksmlT5Z+oQ+YCsSvmCJij5EfZk+hMpLvr4kOT7cXdE9ZdlMPgGshr4Z6mm9k5POvXvqi75iEpM+QtmJvl7iir61uC++R8B1Pn3nmT1aebs9Dq+qvYKVWT4sDgI8nA2hvkwchT6BMSs+Ix4jvumU1r33yRW+6FoUPvAhV768WYs+yFprPqDmZz5E9OM9c0MJvYmHE7572Ca+JDxQPkEiWj4fzxs+MahkPnavLz7HDXC9UbptPuHtS77kBGi++wvivZK+Hb6x/+i92e3VPVcwi7y/9ZU97dRGPm2aU75jQfs9sn4cPvWfBr7ZkhM9pZ7zvbrkMD4iJOM82rY+vS+oJD7n8Wk+PrAxPlzS8r1OF3E+j3UMPg2ZNL6u70k9jk2VvJ7C1D13zDC+/jOuvGNR6L2I8mm+4qpWPgIp67052sa8MUcLvrSzET6YWTm8VmHTPEWwp7tfoEc+tfdSvWuxTb6alTE+iRQ1PgEhLr4sehi+3ZGfvX4zOD6zjRC+oetJPlxebT5oZ0M+t8U5Pq7lqDx/EDy+82c6vqTtKD6y4WE+lD1PPlUvBz6GEyc+Uk2XvZxqgT6YxB++ArtqvnBrBb4Fuhq+sesavpSywD37haq8769ZPX7JRj4PoUG+p6bPPTeu3D2aRwm+5yeQPR5Uyr00QU4+Sb8tPX9BILyqLDg+025GPrEIJD6h+qq9gqFRPrRQMz4BcUi+5BeTPWue5rxp1fA9MaNavkPApDg37WS9BdpqvnvQPD4prBq+EqWkvee8FL6UkTU+uaNOPdKi3zzj+8e8IxRfPkOWLLy80Uu+ZfZcPjnL1r5QdqK+6RfAvkyk4z6bCrC+vwW/PhCQBL+NWM2+DnzfvnVN0T4z6r++JAgNPqiujT5/tNu+D5BTvvokx75uyum+P7fEPnJtyj7JAdy+eRTuPv44/T5MK+C+GajBPjzeG77osbo+fVi/vsr2xr1AeLu+3zp9viy2lT5FoJA+jG+nPiRkh709YGk+ahi0PlxYxz7kRF+92dq2vpZ4r76W2cy+At1HvtHCxb7iBrq+eZxHPu7Nvb6i6Mu+Yx3HvcMt5D6V1PQ+/EOhvvZz+j6CWfK+MMDuPhkRtj5jy7E+TServjldxr5G7wK/WibLPjij5b0jV9G+MCO6Pozbkb7xv9++2Mzlvot95r7cqe0+YwLnvhMp5D7TzAK/hiftvmvH877shuE+Pti+vs0SgT1BOpw+6E3ivqBOeb5m7cG+b5/+vrDBAD9RW/g+ThvmvjmT4j5JTfs+bNTPvotT5j4yQ6m+UQjiPhUaxr4DZEq+Wrj1vifO1b48ruQ+/+HSPsEXvj5+Rl++ABabPn84/j5M/P0+uZwjPvI7wb7zUbm+TcH/vucxOj1fk/K+AjLbvsClabx55t2+M8TlvogDyz3cfgY/390HPyAmtr7Tewk/lvfuvkqh7j77C+Q+0wDiPuzbo76tgee+o5vzvlHDsz7ATmi+TrwEv9n/5D5rRMS+evr+vRwqfr4shla+7ddlPlRAgr4wCl8+n1lHvm4Rhr5FfhW+wiFWPlyrcr5leC6+YUhrPu9az72NJTk+ZmWMvWDSjr5hwZg+Bw6aPqS0eL7vGlI9h/0dPt2Eer4F+0Q+fr+Uvo8jlT5H91C+/hbUvHABPL4AD2e+DlwtPtEBiz4ystk9kDcmvvZ+Cj7Mw58+NbuTPr2HqT0Vwke+iXyZvXMBNb6AMh4+ZTM1vshFPb4H4hS+cG5ZvtJETb5r6EM+1/FrPgp0Nz7r3j2+KFRxPml06L1vk4k+lU5ZPgfRLj4quFC9mo0cvmlAHb4K1Rs+33fGPZuNWb5RUgw+J6QivsaCg75LGbm+5NepvtzawD6vZKi+utyBPmi4qL5eLKy+dkGfvnJqxz50+r++XfXnPNNKLD40dpa+EENIvXPdbb6N28G+W0CTPkBhvD7iPKG+j+quPo0oqD5G8pO+vwKuPsepXb7svLM+ybPGvrhVIb7gJnu+VKOsvgSBmT6HaGY+t2AkPsNV+L08Bw0+hN2PPm4zqT5zH2y9WOiHvseWN77YBqu+GttYvvW5u75WfIe+JQWmPbDIXb6+uIC+fh9RPUlJtj4ZILg+uxNxvvK2vj49TaG+IgexPl5EjT7LkaQ+3oCEvrj7gL65f6S+0TZtPlP5PL3g+KG+dYmiPlLLir4GU4e8JlcmvuM0SL5Ogz4+6/YnvjONCj5kFEO+2UT4vd/lH76aYC4+aoozvoS3C75OX6o9Jv4RvSbujD1l98A7MDwwvjutSz6R0k8+Gv/7vSD33T0leAI+xB03vt1Jtz3StsK96+sPPtra3704rum9j213vZ0FF76H2ZU9PYUKPqwckT2JO7i9WmtJPLFjTj6W/ho+3F2pvdqSdL0/E6G9EdbGvfarkz2XJS69yBf1vV13kb0Gy7S9ncklvmc72D3NEC4+6AA7PsZwP74fcC4+TS0BviS0JT59MyQ+QQPmPWNR0r0JtTG+nD8dvh4VKD6WhlY9ZTYGvgF/QD3xwOy7DlIAvYIsa769HoK+TuVWPlG/UL7cP0A+pS2cvjj3lL4/sz6+bjpVPniJir5zQVW+JIXoPRYMYb4qIgo+4pWyvYJmTL6IMpc+vdpmPgb7W77gSr89WBWAPmlQhb5tA5Q+opEqvizrhj637ni+wD0uvoaaN74sH0K+weZ6Przsiz5CLec8DPw1vjLEsL3DEZQ+MmRjPjdvxr0zAHq+Aqqcvb+3+b0aNM49Kj1YvjWSi74ZjuC9yZZGvpIEg75o6As+9nZFPmHMiT6SS4G+uLNZPtUIYb7tm6U+DPkzPomQZj2Yki++9ZpevkBSS74/DUU+ecyNPSn/XL5PMyU++isrvYhfG72BVl2+IflEvm7pZT6tjRO+WtAXPmPvar55smq+XaELvlOvUD7krzu+G44Cvmu/pj1PKOu91tOYPbaThb0Gol6+Kfc0PnkxFz7bTE2+BwojPVsGXD4qc3C+EOc6PloRLL6dYj4+eYEzvkq/BL5+ANa9R7k+vqKFKj6WQTg+PknAvDIqqb2uf9u9efx1PtuZbD7YfgO+9I8FvnwLxb0Crs+9vXWWPRCLL771lg2+Rg+uvT8PAr6RLGq+9ycvPo1jDz5/Lk0+dFEUvhaaKD6kNAu+VISHPrSKDz4c+MA99LW4veGyJr4xu2K+msgyPnnPDD5gNIa+ls+yPRe0mb2EPXE+2vcZPvu6jD7c64c9uVc9Ph/1bz5wHLy97t92PjpM7j1vRVK+lZWEvaZ6Cr7z9Qq+TWwUvtm4OT4JOwg9tLaNPnbKl71HLIG+KJ9cPpJ/mryw/D0+eA1SvqlZqT16r149P3RNvumARL5XQEq+CusQPmsSMD4wNk8+0PXvvac8EL7uDJ090mGHvlnmMr4Yrpm9CQP2POIfyr3/7ka+qnzqPcTmD76z6J294OVEvu5NZ70EMxc+yk9Vu9jmzD2Igea9LmmNPh7vGT3kEGW+1nRRPinseL4foQ++MKA1vkNImz3TfZY9F+livh5ncz6gKAa+37Rqvo+hFT6XrBg+Eh0LPq76Iz4wbTk+fTC9vXBdaz5AUSI+2DdavoaqUT4clzi+k0pSvndShrxhABY+0VrFvV/BZL5BUrW9npORvWO0az59Yim+YbFTvtrEHD67ERc+Xdl8PjFQob3H7l4+Qi1kPt/8cb7tIce9s3pXvhUBoD3O13c+UiIXPvcqS75LTZS8+Y5NvcliCr5zhzq+PSVOvvwgt73Gx/a91gVgvoFfRr646AK+gE80vqnEHr74zDY+64knPuIveD2pGq29plUqPjGZPD6Tcxk+Y7s6vuvEHrvve36+HXFTvpJP2T3yCsC94JMTvSRVFL45Mxg+vB5EvlzfHL0WCl0+AVZVPT+auj1FKVQ+OoJkPhm9nL0yhS0+vYkTPgqyPL7lW4A+uHcuvjEQVb6SQHg8+7MiPldbyr0JZUW+HGT5vbTAcL3DS0g+rp1qvv3NKb7A8A4+wzATPnMwMD6sARa+7OkNPvxcaj6sgS++QRLzvR9CgL5zFaQ9loMhPmaDHD65+zS+kPMZuun2Kb1VoAm+UaKFvgzzLb5UHUK9FrAwvpYARL7ovvK9bH0EvqKRVb46cm2+XMu+PZmBCT7RFa49GpXNvV5fFT6TLWM+m4MBPmkJKr6/uku92aBdvl4qhb6gZAQ9gnm8vafh1bygIWG+IDfwPaoQ9b1o1Hy9fUgWPmBBiz25X7U9K6RlPpAoaj50cui9KQ1UPhxhMz58tUW+ktB7PtCuRb5l+4K+D4Wju6rK2T1PaKC9ZwZrvmUM1L1riRi9Fbs8PkuQFr7r0ke+4O3sPXAZmT0V20s+VrYRvppkEz5aXzE+5LNdvuYy6b2adle+XNWnPZwXWz7B+8g9tFwXvoPN57tQnUy9RlYvvgUXQL4fuwm+890AvfAXCb5Wb1a+Uhcgvg/2Dr6vDxS+ncNqvnbsAT7Tvhk+ptAEPdqEzr1PUOA9B0A1PnAXDD4yZ+69OImVvG15ZL5Jumy+F0JmPYzLz714Zxe9FsJfvlEEBz5IkAq+DHzqu+U5Qj5srbw9+mn4vNNo1byT9rW8GOUmPACJzrzNxw89x36qvMBYGDqSDZY8F4lFPXAFSr1EdWA8GovEPOjHULxtDeG80EoDu2BPFLsAnT48mF+2Oxi1rju6a0W9d3ZHPYzxSDzw5w+96LjrOyklEz0jhRE9oNvwvL2dEb2oLzk80UcBPc1GNL398AA9Gs6ZvEd3ST3DzD49Rp6cPIDKCL1gAKA6aJMyPMN7P72yIZA8zCYFPGNPR71ougm86RoZPaDfgLzgtye9IieyPAbaiTzngzU95iorvSgMOLwomUg8hxL4vBYkCL3gr4+8rdIsPU1TNL2Zyz0909b5vBS1jrxD6iQ9SkY7vbCHzDvX/Di9atRKvRNEOL2tL6+8+V0LPZqi1LwAIMQ7oJHIOhLRpDwuR4g80QIKPZqfoDzN1sa8cCoKvU3Jwbyw8LY7EFY6vZMN+ryy3uw8DJwEPOhGtDtuddM82Mk8PGJ1gTy0QFM8XRsxvXK5qjxQnpE7MNhXu1NQBj3d/zq9UC0qvViwDTyyJKc8hvuTvDrB1zxtUku9RgaAvGgcrztom1a8aIAxPFPiIT2hOiM9Q0cmva3RQr2BlCQ9cp6EPJMBzrwAvwi9oBQoO52ON715Ygo96FL5uzoxzjxorSs87WwQPQN+FL1GFsI80oCMPBBpFr063dY8AOCPubGxJz21SRM+EC6HPmNBfD61dtk9H+V8PheVnz7fL5O+5t5/PmR0eL6Fw3i+2KIbvq1GJD6UDiq+kyWavkS7O74fvyy+kwuJPotLgL5HToS+oBwGPT4vVj6Dw58+IEBrvoqHmz7/dnM+pLyfvrOxgr4NBYa+C9+wvSMOkj5brUE+/BUlvqw2c73jyLU90TFDvq3glb75Gla+czEGvpzKW77TUaO+WilkvgVilL5fDoC+lpaFvsEVUj4w+h8+0DaVPbTUtL2SsIU+R6CqPpOHGT5/O0C+vUUSvloIZL7keWy+kRfsPXhfXb5OQQC+w+x6vuOGjD7rYGO+AnNqvhxejT5XEa09LsV2Pkb6QD7p/yA+ycCKvPQtMT4qbx4+ImIlvkbJIz6AcKO9kTNYvi02Nr6asm29cVckvniCF77Zyde7WbY2vf5nRD4lMki+VIWAvjWbET7shAo+ssNIPm/hX75siyk+JaBFPjzNIb7guwq+tWZCvmWZnD2Bc2Y+rHFNPuf1Fr4Q3YO9CrHaPX7SF75/Wl++qfU5vvE8abwifP693AkHvr+VMr2QE2K+b01kvg4tfb4ehfU9LvkKPseIMbxnzc09m0fRPbbNYj4YvAY9wPg9vqM45T3SdXG+wzMsvg8sOr0UCd+9aFjKvWcxOL73Zj4+DP/hvZHvV75shHg+Xv9UPsBB4T0RaXI+e794PobMgrzoFyo+yAcSPr3ONL4myC0+Qxc8vlI+a767rui9thxyPQP4U757K1i++F5PvVri+r2FMGE+SoFmvhMpZL706Y89mL5OPnYuHj7liDW+Z48ZPpF6JD7USje+nI1nvlf4IL6aqdQ8wVVAPvZmEz4tcQm+LbqNPYFX0j0ZrRy+xmt3vt8YDb4V9se9qiVIvlKDI76XBbW9uCEyvqfODr76gx6+CzcBPuNzQD6G7V89rhiZvUOGJD7KhXA+cc4OPjA4Lb50We08p2BUvuzqXb6k6sE9/PBLvcxyALyT72G+BPnlPT3qB77mhg2+Pux6PtMh9z00zsg9uJ82PpjpTT6X0VC9DBtbPsJl5D3Apwi+gqsWPg2A+72MVCG+WwkWvm0pBL3wJjy+5iIbvin2XDxj9Os8bVxCPofZ9b0F9ky+tODhPVOJKD7ZcAU+MdNTvp0rPT6tJi0+dHFgvjjZSb69Ufy93oykPdM+Mj7zEVQ+cRSJvfnClr2Ls/m78H7YvRT0T75nafW9SIU5vaxM0L3cjrq9AtwavdAtOb47eDy+QnZgvu03pbz3S00+64/PvbHBoz1odMM9wywFPgi1KbxssEK+pr5VvAW1ar4Zike+RSxqvX+/4r16FGG9OipOvg9gPT7auji9EVkAvuP6OD4vx+49FxEgPni0Fj4imT8+mwmAvbFoRT7Hog0+fQbwvQwQTT5L/vm9R/UfvtQ+0r2Wshk7UYAkvgIx9L2bzlA8wvhpPYt/QT4jUUm+N3ZIvrBL3T0r2AQ+CY1VPq9bPL7jekk+JWu1PU+4Fb5Juv+9QbYvvnOfVj34dhI+kb5VPl5ACL7qjcC9sF9ivRxEGr5SKEC+dwNtvfcGQr1Z/SG+PRMfvuD6IL3QzU2+GAn4vUKgZ75UFmw9fgg/Prwvx73eOR090FCzPQkTXD5FKE49DgxGvjgGxjyjFj++CCINvhuqIL1Rz8a9ywLBvaDuUL6vtQQ+6Ay8vQ0vB75AZTI+e68qPtLcOT4MThs+0sMqPsez+ryMLDc+hGFAPpsEDr461lg+Bro3vanrCr6MB5e9aym/PE0FHr79ayC++AKPPA/x7jy52XM+MBUTvjEbcb5+zZo9/aWtPcmtXT6DzUW+lyVHPmXYyj1Gyk6+kfXqvVZyJb6sD909jmBPPsv0Kj7Mjha+Mw6wu4QEML3m2Sq+OW09vsvhAr5yAK+99tLHvW3vCL5U2fK8Ys0kvps1Ob4Yb0y+emN0PXQlPj7tb/68SIuYPUSt5j297ho+QtNtPLgGJ770Y0Q89bdavr9yC75i12O9U/+avSHRlb0l8y++nKhUPvua271TSAu+i4tGPtlZTz46SaQ+Y5NsPgfenT6vQxU9Yg+RPhp0gT71gDi9fCmvPtJAcD6jO42+2rr6vT//gr2Kaom+J9iFvvOBHD6T+Ry9U6zCPvwxQL4ZbaK+KrOhPgCODb3MRUY+BHevvqveR73ILuM95y2gvoCGgr7VCI6+IicUPiJ+Qz5h8rk+qVswvqoAHb5Ub0E+vSSBvjEwfL4gxlW+8AYXPhXotj0riha+ydc9PiOodb49JrM9QfFivjl/9jz3fYo+CbE5PrvP3j2D24i+8EexPsqQOj64M7++/CWQPp+Lk740ZpO+TNBzvqYmtD3OmMA9M86AvoA6OD6u20O+f82LvmV9Sj6ms6A+seNZPq/wDT5CpX4+q8L3PW1OOT72XX0+QEHIve5+hj619S4+/68dvs6wP76+lu298LopvuFRF77kZjQ+WIUkvVIVlD421S6+3uCTvvy9kT5V30Q8btUxPpAPar4ulnI9SOREPVTiJb4DzoC+EY8Tvo4MoD1CWGk+fUtUPgTO2L1q6+m9LplTPsNAcr4sgy++lnQyvs0dqz2Eg7W8xS3evZ55ET7n7Ei+7wiJPcv0Tr4P2Aq88MuXPhBZCj4WW0A+19vKvXUzdz7dneQ8rXV4vtjcYT425Y++qk6Avpg7KL5s8Vy6OBF4vCjIe750Yyg+SE/FvTnug775jX0+qB+GPhZejD6Eikg+Vmh5PiEngT0zhW4+viOFPrWj1r152mQ+rbpBPvOxWr7Q5SK+yyIGvr8bGb4O0mG+xvgRPjP4pr0Jw44+KhkQvhxIWb6qVYM+iikKPXf9dz6luIO+dkBcvLgyTz27TCm+cj0qvh+vVr7YT849hxocPuQxWD7jRB++juVHvvo5Az5xFXa+2hISviagL767qtQ9aFNGveY8Bb1o8CQ+CBqEvk3HFD08VWG+aaElPFvugT5vH3A9PWomPkjkEr7tWoY+kJB0PVyumb4YXV0+xyqBvjxomL6Jfx++5pIbupIqtL0jlIa++UhDPi+tmL2OuGi+qtRkPgA3ij7pbzM+bYlMPiiFgj6I/yg+ZkxvPtfAMD6q3Wy+svCBPntr6LuMgC++64cIvuDrl71K12q+4f+CvgSbhL3yQEK8ZRaLPnmFnr0tpIm+npglPlPrOTv39X8+u7iKvt1yRj4Gbes9eK9evv3QQb4rQVW+Oyi9PT2HBT0JNYw+54Y5vNjQJb5ucIo9ICZRvrMygL5mw2+99G3zvcJZ5r14pU2+yMfXvXDBir5izlq+p3aYvnws0Lzjaq490WztvfI8kD0DJmc930GOPuJqEjzFxU2+57wtPuNbG76F/bO9vQSsvXozE74RWte9U0BYvg2kND58diO+aTuCvozoYD4J4ng++sFFPn70Mz51xVM+jU5mPtBYZz4dNiY+Cn53vjdWdT6gp+W8WF0ivmYSC74K+nG9dGNdvnUiW76wPae9p6+YPNmkiD4jq+K9m2CVvpKcbD67Lwm9x65qPnb+iL5RoDk+oQpsPeacRL5Dj3C+l9QzvudLvT0r4N09fzpCPsQTob0Kkxu+i8nSvI/sc74xWma+Kb6GvdL5/r0xJJi9GvsyvpV2nb26vWG+lcVFvnq5jb7JuA+9TvLnPRvVvL1ujPk9whiAPWhXTz4dPIK8sBJeviQqDj5+1UC+VxS9vUtkDr75ffS99/SMveoiar7VsEI+f3Jvvqaier6zsCo+M85iPo3VpT7GO1c+mUOXPgexYz43p1k+FcmZPpZGeL4XZZo+m58EPjmmlb0EURy+GqTfvUIid76eNIO+fgQFPuqosry4oqA+LqoavlrBm776nXs+e+wovbRkgj6L+5W+BMT7PWNvljxQUy2+mTaCvhWVWr4gvSs+aOkBPgulpj7q65W9/qZCvs/lGz7FpY2+iFNtvrbAtr1Mrqo9QSbUvJI5+L31fhs+3IWSvs++M74Ploq+h6QuPJtZjD69iTI9TEQ5PsT2YL3es40+SnruvLHxkb5313k+BGqAvt8omr7zSji+ELx4vVDxrLy+R5i+RC6APnc+bb6K1qS+Id+APqyPlj46KIo+3f6SPopbxz69GEQ+RUmaPvxElj6Y/YO+f86gPmSjvT0cr52+eWynvHMlNz0cdXO+WG+gvpMt/r24vRm9y7OyPsBICb65c6++7C6nPuS2a757iYQ+6VaZvpTviT4DkLg97my3vjt4Nb6kYoK+io2JPay8lz26M7M+vRXkvTPkTL6/jow9xCKyvgCom77+wae9OPEAvi2qoL1ko7C+7Q7PvQsvmL59gZa+YH+Tvjcw8bwe0hc+3WEavj2Vej0V1RO+NYKxPjvk4z1fJ7C++NNSPlepN77wO+G9MgKYvgAKkb25XAk+nhpkvuTGgz6wqoS+30WwvncYGD5mwKI+PI+hPor6lz4cs4k+Pta/vR5yaT5Dq00+9vi8vRDUgz6PWHI9Qp5Ovi3mbjwweRo9IVaKvlTxQr5+oDa+QrZnPOqNhT6V0EW+5yeHvl6PgD4ilgi9cZxcPl8IaL4paHE+5sRxPitRhr5seue9+ARIvi5nQT5+T0U+xqI5PgrKXr76StS9TNLNPfFFgr7r5IG+5ftfvrDHeL3y7eG9tccivrD/RL3nZHG+jbx6vvrpjb44Tsw97sc9PlztDz1szlk9hrgtvrqDUT5we5A968hxvtERFj70kGm+LAc8vio3O74kdAG+adgYPRXOJb4iCwk+3JwqvtSfJL5m0Ss+eH96PtB4Uj6h5+E+TVTYPvYdSz63Jcs+oSa6PrtHvL7t7ak+oLbVvgslvL6dgT6+QDyuPokoAb8UMda+L6yxvgW4xr4GJ98+sS/Kviau6L4X0lu8XcrPPrga3D4zp8m+MxXXPqKEvT4/38m+Apvevs4f7L53FSu+nQe9Pn0w2j74yrW+1/pFPmswnT4GT7++5w/DviXG3b7k7yC+4jPAvvWOyb6ae7++1TTbvnR10b4rsOm+TOy3Pqnjyj7sd7c+s0CMvmUgvT7+Cuc+jHm3PrIr072+5Za+nymwvsX+3b6UFqs+yqXZvirw0r3+2dS+JcC7PndS2r53xr2+LWfrPnv6zz1i3Ng8TAVFvDBywjtyB6I8pyIVPWc4t7yAxAS9vb4IvVxBazzCHcI8c6n+vACFtTswk7e79wcIPQDmrrra1qg8gCelvND0SL2tSp68mPLEuwBrD7zG8JK8xyAlPZJJpzwHwqu8emj8PJLdwTwp/zs9woepPHE2Dz164RG9E0ImvaYG1TwYUL47ggL5PO470zxOksM8DPhjvICYhbzTWv+8Ol1LvWJo0zxaAeW8hyqovPNEMz1jJRa9NL9WvD3vE72MAWg8AClmvMDavjraE+A8oDvWug1nSr2EPmQ8geIIPTHMOT30FiA8R+q9vIDK+btQmQu9h8EuvYkyEj3cE3I8MojsvVdnYD7Be3M+jsTPvGuuVT7pmUa+42W5vXKbk729Yyq+Rg7yvRlgMj7gOSy9yipUPlannb4RIW6+QlU4PqTgUj4hfBk+VEiOvmLQDr4aRYa++LyKPlT9Cz5bm1s+Lve5PZgxOr4Z3QU+JHGOvnBVsDz9r3a+hNIlvpg+aj4Z5kO+ZdV8vheMZb4rFGu+PO9+Pj5/OL5hUSU+wXBDvsdVAL4xmCU+6Ah+vt14ab5EE1K+4WSMvlATmb58A7A8HO5fvTBwTb2TNum9eJNqPmQcZL6nwZE+T8GnPpMuLL5BcTe+3Zx9PQ4PAz4+hcE7JNH5vZG55Tyd0XK+XywUvnmKyb0+wh0+7QvZPdSbWb4x2909jju/vSzkPD2c+Ty8F2EqvklSHb65QpQ9BTohO5jzGz6Y+ey8aiQAvkf/xj2AGhw92AKovUY3WL5e1uG9hpDkvS+21z3K/OE9r/E7Po7PMj7Q7i2+w2gOPhRuHL6F4KQ9S/kavXr/X74jKAQ+jJvfvU1pSL71/C2+fJdOvodInj0mpOi96rnXPbsPD75MLgC+7bc5PrihK747Lwu+Zv49vocm6b3noAW+CSrBvf3y3L3o2+C9g3lLPJD15j1+IjC+FUYpPpReVz6vvMC93FE4vmuMFj2v+e49vw0tvaJ8pr2N2ag9y3ZGvrzItr29pFi+KTEAPqmMFD5JeRi+t+gNPpgOGr5ITzK9ewEuvs5iN77xkv29Dd1NPverQTtIDW0+FnQ1vhrJNb7+k1U+KKSNvdvBHT0lnGW+rPkuvoXZTb5mzho+40DyPQsiQz5MaLI9xTH+vRW0QD7972K+RDocPartN77yhke+Etc6Pl/RRr4efyW+Q4hfvhDyUr6n+2Q+h9ZIvvrBTj6f/FK+Byn6vWhBfz5emCm+W6M5vqQ6aL6kbVy+HOswvqZG5L3seCe+H10nvjubz72W/Do+iqdGvvJLgT7Il4I+/Uc+vonDFb4iMoc9ED4gPhIr073mxeG9c3gfPrtCS749WEq+tA8Ovmzz4D2MYVU+2tklvk3JmD2jJOe9MK0JPZvrDbuzOQK+YYcivlnXTz4ox5q7jkFHPn/STr1Adjy+Dv4VPu1pqr0gWok9SOs7vrZwPL4DTEG+PZ/iul6eIT53kCw+W/YZPrmEWb7z2Tk+ChVZvsLSP72OxSq+FR07vqR5IT65eku+cFRnvpDveb4Vtua94+5IPvRJRb4kXWw+5s1nvr8A8r3srIE+0Rgrvn3mRr6KKCS+HCU9viCMPL7A+Lq9mBsqvp9BFL5OkEO92KdRPlkzI75+Hk4+w2gZPiTk6b3FfCG+9UsQPlTp7z1R4hm+6C8UvrVH5j27/TS+gb4QvgFtH758rOI9kJUGPs6VAb5Wce49CbOpvYK5LT3Mig091mSvvTvYqb28Fog99rlFvX/fCj5Otpa9xp6avfV1JD4iZZs9xewwPT/FAL7SP9e9nJ8vvnLJZz0OX6M9e2ouPhD4WD3pF4y9ZzcFPheW+r029PQ9Y9flvSUm6L1AoqU9odsKviuVN75o5Ci+JsYqvqUmDz5knQ++IEbUPeOIH74g4Vq92+QHPjcBzL1Z+E2+EY4DvrgQPr6atgu+LKrKul+CKL2hyMO9DNBzvYnFBD528PS90Q9OPhDoLz58BAm+IFf7vf1EjD3Zydw9OBcMPe7qML0imf26yEX+vfw8CL6Bxom+CoQovbp88z33GVe+2UskPZkGgr4MutM9IdSHvfd4T77sIiS+1uNiPmQiyL13HnM+azMMPr/PBL50u00+9mYQvt8oOz7Tae29v85fvpAbSL4+A0u+RZtEPsIC6T3/lHM9gFVDvgVfST7n/8a98cTePJ0XP775aYq+zv54PuSGJr5EBFm+R+bMveJlBb7odog+yzozvto3Uz41lzm+1E3nvQm6nT6h0xm9GOVKviWTa76u60y+4q9Pvuji272iTSW+BXBUvo38Vr7iAj8+EXuCvkXDgT7SuJc+i537vSO5Q75GiCo+dbeDPogn3b2iG7Y7ii4WPg8Ih77ckne+FQZZvrTdoDx709U9cWtmvq6AxD2cVlC+98e/Pb3A6735Uia+Xi5OvhYfWT6RQb+9ElmNPph3Iz7/gP69dQdWPtG6Q75gxOQ9Z/gevpeUQb4EVXC+uws/vtPxWD4bgho+gTzHPWN4+L0MyYY+VbMEvoHc2zxMnD2+FYGEvkb+Wj7wjla+g2xwviKuPL67aQq+Q42LPuxXQb5OKIA+8tc/vji96b05dYc+kjuYvZodV77FUF2+/5OVvrNMU77fkx29xNJmviGIhr5yBPe9HdiFPnouhL66nYc+lyiEPkgr171PQta9PSrwPcMoZj7ubxG+qYgMvIi9Tz567JG+sPOJvs82ib6uPDW8LDxzPUF8Mr5oDaQ9jihzvgRYBT7hFeO92uodvg4QPb5C7z4+96CwvXlVkT7Kmu895EUzvmhacD7FQS2+91k5Ph+cB74lAm++lK9Uvkr1OL7Opxw+EUb1PfTmwDx4NjK+oQVHPv4YE75sTK08v/0hvohKib6wqUQ+Ip1PvpKAdr4c4B++MtwGvnJofD7Iwk++uDE2PgJFRb52WeW9Ea6TPr/iEr16SlK+1FqIvnablL5MXFO+rKLfvfnogL7jhVm+IijtvV3aST44iS6+kj19PtN2cT5fAj2+Nscsvrg3rz1h8mg+d1ePvX/Ffb24YR8+BGuCvob5YL57DGu+bvM1PJ31oD3ZzES+tbUlPZtlSr54jhg+yBIavTNLUb4rWl6+fNR2PtoEBr5tP2U+bzguPlLDLr66e2w+681BvjXoMT57/vu9Oa80vkZnib4jWRy+kgIoPpglCj6MbL88mnA8vt2xhz6Ho/29YfI9PflBTb41zVW+J1CAPowsMb4Ld2S+xsblvS68/b1dG4U+rhMMvnewhT5hdQK+iDicvR88jj75Bf297i8dvuuDeL4/7Fe+XR9Xvm70q71vFEW+soqHvse6Cr5qF0E+fyNwvvSfXD5MvYk+3bk4vobERL7q2xA+7CQxPgxUWr0XWpG9iNYmPnU+bL6lToW+ZnmYvhC/N7x7PB0+RTNpvr6/lT3+FjO+EE82PuQk1L0y7D6+vtEqvgBRZj7uZNu9N6RqPgmnID7sWAW+ZFd3PvzpJ77/gjo+69kXvtEybr6m+Ge+179Dvr1taD5qGDQ+sk3uPAZlM74JbIQ+DZUPvrdhKz21gAm+S49avuUDPD4sRh2+oouGvjJiDL6e6jm+WbeAPq+cI76o24I+ALVPvtRbGL6PoqA+wz/KvUr7Hr4PRVu+k5Rrvm0rgb7qjIG88q0/vnfFk76A4j2+mqJEPmsGRL7sN04+34eEPvmKOb58GUS+QHkpPvn0Qj7D5du9esbyOsGVND4ZGE2+tIs1vqN9Vr58OE4+b4JwPnNXG754mVw+tY9FvkuVqjyiJmC8wuBJvi88Eb5MfxI+Gn/wPOA8Uj6WgDq+UKkyvhRmCz7JyEE8RRyXvRLoOr76HFe+hDU0vutJEj4mbT0+iRQVPhqWEj7yXC++Q374PTaB571EKgS8Do6MPCDNfL6J8tA9RQ0zvjRVIr477yq+6GU7vkiVwj1nLyG+3+49PsAyXL4rkNC9ZFM0PsBNVL7N0Dy+3/lDvolXJr4OAVK+wI/avbjIA74dQD2+v/qWvDhHGD6/Kwe+4IYgPisFID40ZSy+p9f0vSUsMz6QoRE+uWYnvtYb/L2VPnA+QgovvtfM8r0t+DO+KU4kPnupTj7jIyu+ZYYLPoitcr42m6M9sPwsPRxzRr6OQCu+l+YLPjlM1z3sX0I+h7cGvsjCH74k/0w+xVUoPUAxt73Y63a+h1BevpMePb6lPb89f2IxPo7bUj6qwSU+1DdFvgeOAD4yGTG+iVKgvK/+WD10CXy+ad0bPlKZVb7cexi+NaZNvqF2PL4OKbI9sbdTvtEpaj5KgUa+dkXOvQrmHD4GumC+DvI4vsQF6b1v5FG+/u1wvoJN7r3uAd+9TcQevu7vAL3/wWY+V7dTvpDbRT5N9CY+/EgTvsNrCr6BecQ9iFAVPo2Wt73C20O9Y1JkPsAkXL6rlv+9MTgQvjiVVj7/Tnw+tmcSvsGmgz7aBH6+nv0/PTEQjD29hR6+WoErvuqdNT4BRDo8Ieo9Ptjdvr07nUK+dttCPi5z8T3z9vW8vmd2vsYS0L1zmWi+NZHSPZARIj7V31c+1ZwIPmfwIL5ETVc+S8RCvlFBLj34jam99zxCvruAMT5upTS+8CRbviTYbL4dBX2+FydkPol0cr6EoBA+UHI6vhYxL76a+BM+oxsJvns6fb77GFO+kD87vp/3Pb7oYs+9MmsJvlpqZr7G4Ka9ukwvPqZ6S75lokM+cDRmPm3hQ76E1s69jYoTPtVDRT6wOhO+217cvS55Vj53ZUW+FuMZvsh6Kb4DtDQ+yqBYPmzwPL7Af2Y+hIpIvunf8D3anvQ8C0AbvsE6Tb6irA4+AimRPb7Edz7/fKG9CpRAvoMNMD50KBQ+cU30vBZ7jb5UnzK+0KeTvlaK7j1611E+xBsVPoMH8D1ij2S+BdxLPumgc75ddtk9EocVvvlxR74KYF8+NYwOvp5xab5aKDi+C9VgvpmLST6hgHC+P7EfPo1sOb5spjG+/3hYPiuGKL6VJnS+4EAkvrxdd76G1Rm+AkqWvbuaUr5iLDq+qh25vRoUSj7sY/e9PuAjPgXNTz73FDu+i/o1vkkV2j3fBiA+/N/KvZ04xr0d5xY+q5pdvoqi/71acc+9xRVrPtU9Az6KdiK+cQ+sPT9JL76+HB4+beE3PRVgVr2s7kG+Tz5lPZmDgL0kPi8+ZQ8ou7jDl73Z1g0+/SuCPGd/dr04KBm+wsTVveESyL2DACw9hS/RPSDRpj1UXYI9qlwpvr8AgT3b7uS9lKHOPZ0vSL1+cyO+FBm4PZHxv73cShS+teQgvk6MKr6gGxA+HR0vvgONKD53w0G+0OlWvf/nET7dkaC9whjyvYfNdL0IITG+5KcMvqShn71hbAW+8zWevahfzb3mTRw+yieRvZqq2T3Cd+E9PhmavWE37L1YIJ89HoObPVGzzr2ccLe9BG7ZPTTsNL47zJm9milkvkV+Uj7bt00+P+NLvjkRaD7huju+elHmPb6pYro4IDm+ztuCviUJLz4zFW89x4iAPreSAL6/RF6+F7JkPjHO6DwuaWa+omE8vqgxWr4MiSC+feYOPs1vTD4Hp1o+qhxyPiGPSb7Uv1k+Zn9TvucbQj21mgk+np59vuuakj2SbdC9UjVavur7Rb5a7E6+yEgoPZPwP75MGBY+un8bvgwMML43qB8+E9YmvtbuFL5cPui9i4dSvhJLKr4JUgK+gy0lvtXuPL6z2KY9STBDPg+IYL7MkAA+w7xEPkXvQL5vIhq+xawpPoEUBD4w9BS+ex4Gvh7sKT7nwye+VGUcvoKefL6Du4U+gNM2Ptf3fb6GvTA+iQxlviHtVj1Dtpk9O7UBvpwefb4BpjI+8W02PXxwJj6VV5S92Q37vV2LNT5o5h09qFFmvgH0hb6d9ka+6RsHvgqK/z2udV8+TR4XPoL/VT6r1Tu+RIVePvbfWb7SrcI9XQEOPgxQib53zd89mPH8vRP+F747vSy+Yao3voBg1zzX1hm+yhdePiyxVL64Hym+WftJPvA0YL4mySm+AjHMvU5+Fb74mmC+48TOvZb5+b3vjXi+R6VePQtIXT7bBCG+Qw27PQYgHj7YsAq+kvA7vj6Ekz1/Axw+HK7GvbeTvL2OTWs+o1dGvjkdFL5gpV6+Ot6CPr6rdz6DKH++V+p4PjVOOb4EufY9P76OPXS4A76v0JK+OFPkPeTt1T13EmE+g4NgvfQyFb5/wSA+ezOEPW5uQ76fDHi+jukvvjs0DL54aPU9UCwxPkOUDj6QxUI+9XVgvu/g+z3uEjG+GeqaPeVQRD5OaYK+LdP3PYOzBb62Vxa+ho0nvoQmer76l9U8al49vswAGz4AhnO+BoQ/vi9oGD4O40m+jvFlvg+w+L0WniC+ivlfvokQKb412FG+zb4ovrMcLz13vl4+njoRvkFZsD05bFQ+g03XvVxEFr5wXKQ9A29FPp9wJ75nRA++pZg8PmtuK776a02+cWPhvQw1VD5MIVs+c7v5vR63BT6j3AS+oUcWPmbkNz6P25W9RXExviIarj3Yqmi9h3xVPpUQ7Dzsi769xN8pPnwJuT3tR5A8du5JvpZaFbov2Rq+PzBEPXF6tz2Tm/49iAoBPs6PT745+gU+ZF0CvlcNrj1m0fe9dmQsvgFfIT6iwAK+2V1AvsDfab7x802+9lLlPSn7Gb58jAs+YTj9vTYiT7vosjs+3/UQvnGTSL5tt/69FcMIvh769L3AtjC9qZE0vt38Mr6aZbq95hy4PcYv/r1ZYA4+w2FGPlPPRb4+Aru9xu6pPUw0Aj707Ea7EL2kvcF18z35UCy+Z24KvufjLL4r6I0+xdedvrShYr7pqCq9Gh51vk4wjz4W4Ia+RHcmvqlZOT4AtgS+AqgzPJA4cr6DtS09hushvkI/KL4zE3+8bNtxvvfqRT6dXWa+T8sxPpkMFL5GDGQ+Dra0vb9OLD5seh0+Mi5ovjkSUT4SKwg+gx5ZPvCFQb6NtC2+5N7zPa5hTD6f3yM+dXQAPXhAYb6K822+tiQ5vqgzij4+0Q69pF52vnIZb74VD1I+vipjPoP9rD22qW8+buDzvTwKTj5K1DC+ntSoPYtVOj5r/Oa9s9kwvgj/Qb4vORg+lbB/vpMier7Cvu+9+oUUvsHcRD4mN2U+H6WIPluBMDwA9Yc5uvDSPEOBKb26nfs808Myved+BT3yPoA8TMsjvAC+ALwz3568GG0GPKM3Or3RviU9oFolu7A3zDs9thg92iWfPAD95bvNhh+9brDvPBLOmzy0MAG8XZwEPc1yK70z//u8xwv/vBjgATzMs1M8B55GPeJCwTzQp8y7hkfNPIzORjzcNmU8GPCjuyjiLbxo9Dw8APZRvICvKby07V+8bQIYvbQJc7xMRoC8mKFKPGDMEjun+vK87ToDPTOkEL0yda88B/eyvOfKMT2Od+Q8g/4UPcBkCjwNf9y8hr3BPGAoqzp0YYW8d3MmPfSEFjyqmA69WhYAvcqFNr39Bke9AN9RvnvcQj4CI56+sSSMvqJeg74wLE6+ZHhLPv5oeb5lY0q+lad0PhgyTL4M77u70VRivpIoSD7b1oS+2mGLvMeTTr5Q/Ai+MauDPj5LfL7rGG0+Geg1vqkAMT4dnSc9rcWoPXn9oT5ibHG+yCtnPvLNGD746D0+iy2Fvkk2Db7wUv09GFhHPi0lOz5fkS8+GLI6vrKJG759t/q9qx1jPo3lKb4FhVW+OAA9vrJkZT5r0hg+l/dNvgnYFT5n7ya9XLaDPuDoYb6/qqA8kmlzPpyca77ukpC9DE25vAC0uD3MUHC+imRwvpJd4j232xO+oJZEPiXXhT6qrU4+7V43vh6kVr4vR10+aheCvp5BSr7Br4W+UWFXvkJdkT4A2oK+61SLvgGllz5DDhm+7MeTvO+ydb46fWc+RvxEvlAqmrzVBF++XK7fvbrLgT4JfY6+TBJZPg6NY75bTHE+Z+4nPY+hCD66C4o+ErhgvrQuXz7tfSY+9bVfPua1db6swS6+hCH+PbIN8T2nmVI+TqAAPuoxPb5gXSO+U0DovbcGiD7sYaW934h1vh3Dhb5pOYI+oRDpPZPxBb5UEf89vszevExCXz6jbIy+YPPbvKCKlj7oOFC++iD4vdAxNjjOOwA+mNhGvpakML6QYMo99lg0vg2ZKz4UWIU+5a16PhZ5Ib5If5O+F84FPifCkb6+aVi+QlxNvhwslr6rtZA+0DqHvmfLRL5v7Xo+wosLvserYD3m62a+CtloPiJFTb4/zW690GqLvj+YM77sUYM+jhmEvrsdUT4mexu+2kNsPkrRAT2C9yY+xBh9PjzFQ74QwBE+RNoAPjC/VD6YfF++Rcg0vniCBT792w8+HYQ4PieTKz6QcEe+eWYgvmVfBL75ypw+9AKnvePwf74bg4G+35iSPnjhDT4h4Sy+Jn0sPuNpzb1rlTg+U3FwvnwmTLzdB3U+g5xcvhiTsb0T7j09a+woPgTjSL6w5Uq+4P1pPU4APb4MuHI+VLppPiqzSj7qyG6+5VOIvlONBz5NF5a+0m1vvhfUVb7ZJZa+9PRiPj4Jgr6PL42+8XNiPj2OGr4qzdc6kTovvuyaVD4+VIu+ZUXbvQI7h77iqkC+VsB2PqcIbL5pDEY+5JNTvsKobj5/63o9QxCuPWQbhT49bxm+fMlgPqeIrT10UEU+1HaJviFFQL4416E9fCvlPUOcTz4CejY+bIUnvkDFO77jCda9t0xnPgeN+r3cNW2+a1Z4vkkIcD4wh/s9ceBOvqRwFj4CXz690kdTPjGNfL5WO5O8qJiePt6QjL7Wy3G9JaTjPJeYCj4wUEq+nHIuvnAYyT0drg2+NzctPnjIRD5BT2I+vEVcvsb1OL7ihII+xeaKvsdcQL6/qG69h7wnvlvAcT65PUe+rlVLvnhbiz04owO+Q/+CPSU2d75ZSlE915I1vlCgHL6cPZw5fLOKvrjs3D3qsk++8zRVPsy3Jrwaxjo+NQO/PT29Kz7VXOW7PScpvnbqJT79hxI+JdqLPilbW75qvyu+QatIPi7zej4Pcjc+/OnbvWYZjr73OTa+7hlfvgUILT7IRAi+oPxuvpsCZb5mJXc+0HJsPiXeEz4J+jg+C8jWvecEMD6VgAO+EGRvPcaeKT4js1u+Z8hGvnAFYr5huFA+lkJHviEmLr566xK+lktNvi3JVj55l1Y+1HSDPjOJvb1hQ1G+F/qGPv30Tr6/O4q+cPWQvdkcVr4JSoY+AwF5vhcYKr45sfc8qqVOviUOlD0Al46+JVcCvRgaVb5uuAC+aICovdNpir6q1DQ+fmJRvoZ9iD7pt8C9T7dYPvt6Bz3AsSw+7GyWPSJoJL5u30k+AYLAPZfQfD7nW2K+/MU+vkrILT6SImM+NUAgPjdpFr4OFpm+V1QIvpJbf76jBjo+WAwnvvO6lr4kRmq+lEVTPo7JTz6Ct8c9fFQuPqNuzr0D3Hw+ueEtvo2ZAj4yZEU+qExDvsMhj764j3m+N61IPp78Tr6auUC+Vi8SvhWVP76WliQ+3pJbPqCfez7FBPq9QM9eOgDQQrq0Vzs83RAOvXpjgTyzaQc9Lt7FPKC0K7ux0EA9lzdMvbSWILw6B7Y8DEp9vKAG8rzhfxs9RvSLPKLlzTxsXpi8MBvmuzCJXTsBaQU9gCW+O5O3zLzQHEC7ADBRu1Bfzjt5kQk99JkLPABGKzl6GTG96A6YO5pGMr2uwO884x4wvQ7DrDyzzua8TNo2vLmMPT1HVBI92qSXPBNAz7yxazM9MPqTOy0FDb0Su6k8AO/Muz1eRL1dOSo9B6BGveglh7utgzq9jXERvcxNEbw0oS08HXYBPWYDnDwYkty7wDw4vC4QhTznwPm8IAC1vFePDD3WcR+9Ym6DPHJvizywRr+7hC9qPKAvsLoZTz89LY4MPUYolDx64ek8aImguybWozzdkke9nYkWPac/rryMjlA8wLL1vCOYIr2zuyE9gCEBuszaVjwgEfa851CyvEpPNb3ABWS8d3AUPZfCQ71kFnA8Gl23PDNGED2mr4s8ujG1PGATaztQTpE7oIlTO/SNDzyj6DG9ANAZtzoTurxTkCW99NgoPDCd/juz7zE997pHvYAiHzz6usU84K4SvVgMFDwY7yy8oONWu4Aiyzui4uw8sI2luzAIdjuYps4754fAvNBZ+jvDsC89I8UQvWGOOj3AUWq8NFkyPESZA720Z468J+jxvGAIlbwK/2++QlKHPhtRp772hpi+CUkqvpboo74dCqo+TzSSvtK3U76zUl8+66oZvtNZJLxUD4a+TERnPgIyjr70VU+9A+mFvriPUr5rFKI+3HxzvmVyaj5n5Ve+belaPol+VzvSl1I+V6mePrpCgb6Ogzo+biYlPme5LT6Yj6W+Nkkavsd2MD6f9y4+Ci1xPrM2ED6bGmq+Lo5+voehPr59YJc+diYtvkDvjb6lFIy+mU2iPhBp9D1oBRG+rlRoPt/jz70+EIM+BnSjvs1omT3gt5g+5cGKvi1mEr5h4OW8Pm0YPmY/l76xTJ++5ZguPsw4Ir4qEIw+lxGRPj8eYD5S206+ZphtvqF2Xz6zqZ++HVCOvq9sdb4Axoa+ZnKDPhD0q75CNHi+aUVsPjTKzb12MH47jmSivoqXdj7m+lq+13NtvYcJhL7Vf0i+HWeEPqnHkb5MlYA+lWd7vtvwkz6vl9A8ot85Pn/Dfz7zj0y+vsRMPluVID4Jzxw+PdWcvpyWRL7FYC8+mu0zPi+Jfj5HxDs+70uMvoxTgL6VTA++fyisPgLU8735h5W++tpzvkTSmT4KvO09Dno7vunVXj41MZu9MxBYPi4sgL6yvUo8oSeNPru3jb5WWyy+n4dhvDjnID4Hk52+P2Cbvg/70j1/uB2+fPaAPl+ZZT5fdoM+NDBlvim5hb4HB4c++lysvi75gL5VSFC+1zGOvldarj6c4Iy+telfvrXlYD6zFhm+HmiAvPehib7+HWA+9n5mvnP4jLw9cZi+4rtMvmzXhz65B5O+AnN1PvU5Yr5CMow+qyOAvKywNj5cDZk+K3JtvtCOTj5wfBw+NXEWPgvbmb64hHS+GyIAPvyKfz6UCn0+7WdFPgsvOL5iuHW+bpHgveynpT4ywcC92ROWvm1TfL6CJW4+tAcLPrq/XL4N7ng+nvV5vXIzaD7BLpq+8zMjPcMUlT6fHYe+P7clvi40ML2O4FA+nmaQvoJ3eb7ORiM+RXwzvp//iD7jHoA+bzWSPoK0Ub7Rvpi9MHRGPr8bar7aY4K+uTe0velLbL62PVU+1MQsvhGqTr3C+lc+Chr0vVyWh7zyfKy+2tcjPinaEb5+1P29vUR1vdvFbL40IkA+513PvQODKj4AimG+ayZdPn9lJL6zowE+m0w+Puihlb55q4s+rd30PSXvMz5K6mS+wlM+vh1WOD7t6BU+HMVFPojkpD2sliq+2lsRvpM4D76HTKg+tNjgPHA9kL6q40++SbJPPhS1Sj7Z86M9EXc/PpA5vb24PdU9qPZhvoLM6zxEIf093DqfvVnUf745J22+XBWxPfyr6L37sUW+t5wGvs3i5b1ZvXw+CYgrPqoXnj4/Krk8JtMyvjOzKj6L75y+d1APvuChBL6S0T6+InBLPq7NgL7aTYW+b9FkPlUqZL5H7qk8/mt8vu9oaDuvQW6+KFjEvfd84L2u9Ni9Vg4GPuNigb7Slic+6l5qvSXy7T2hYJM+V2gLPU7Fjz7YJkO+qKa8PT4MET7aaVM9zdUxvlLOEb4UMJo8IPkoPspEMz7mUjQ+/OLvvdNfT771Rgm+zBtNPkJzL77XQIK+Ic6gvsMTTj7fCd898s1Bvjd7uj01zNo6JpeZPv36/b2IMtS7qB2bPuk2Z75yW1a9mJsGPuwUyT0VfGK+q4c5vpEqdLvBFa69aPkGPvcrRj7xp6A+9jycvXHXQ76ukks+wCh+vpRhA76SnCO+wGcDvl8j7T0FPYG+7C+FvtBHaj6vZUC+SFChvBK4Ob67PaA9ZHiFvmiEbr2ROAq+v32hvfDdKz7W5Ye+qopaPhEsWr0+Px8+Nd5EPg1aoT2zXHY+emmDvlKp7z1zqC4+PWuiPWM3IL7scdC9HjAuPS/X5z2Dg0g+scEmPj7r7b0RHi6+WIT0vbtdJj4mGCS+lI+evvRojr7dD0o+w5aePVCLL76l5+o9oaNkPDfxaD5wU9C9dQdlvfvWaD5TrXe+1DJovRBX6D2m+9g9hziAvnKuJb4qPeG8OtR7vROcRz4K7z8+6heDPhaF2b3ktVG+HOWCPkz9f74mYHO++JZKvTtAUb4ZmnY+xDcsvg9cRL6BpT49bRJ1vZYSij2mPJC+IFENPt6DZb6neqK9i7vVvTmijL6akUY+Oj5ovh4yij66ofK9ZphTPiR51jtKf3M+OkMTPUS+YL763IM+BFAuPnSqhD7OTYC+PApbvs4Y2z21Mnc+kSNiPgXp7L2FC4q+hz0+vu8A2L1/lC8+x6msvb+EpL6LXYC+Ep52Pq41FD7k9KM9WnaBPmgIzL1Yby4+7pBxvmuUFT472Bc+1UEBvkTelr7+3ja+anLpPV7YfL4GX2S+jG2QPbBdM75F/VI+WbF+PmHLlD5wsx++bdDlvCMFuz7DQ8e+Z8RevgGrw70tLby+XcXWPlKlor6CPRi+D1q/Pl42kL5dOdC9HQPAvp6MOD4wRZm+VLd1vg5yX71Tf1S+CEaVPmTJO75Xc5U+8nBsvntObD6rYi++/JIHPnK4pj7bVq6+iNOZPnVxaz4sOSs+KoiHvrNwi77g4zM+W9W+PjQalD4n518+ZRaUvtnsab673Cq+YWK7Ps3Guz1FEsu+Ek2fvtrFoz6b4EI+UnhzPXMJoT7b0sm9TaSGPg4KPb7K/Gy96S5hPj31h73I4aa+oAuPvqB+Vz5C75q+WpOkvrmNcL4bJDa9BCqhPqwlkD5Ci80+Y/o6PtATuL0azLw+jvG9vhetYL45eKK9T3/Cvrf5sj7ccJm+EA8mvstXzT4gkoK+rhQfvVQX1770KEU+B6WPvnjJdr5NDoa95SRzvtipgD7mRTq+xHynPjiuXb7ZqGk+zd9YvnlkpT2wVrU+xifNvrsZhz52O4o+Gg0rPm2per4dAoG+MooIPpAWpT687Jg+TaZ6PtrPlr5Tu5e+5nItviSyzD4+d408R+XUvp7Cnb5yzYo+4UZZPu4sUz0Wz4c+84UivQ4PiD4WJEe+GDUyPCM9WD4h9fW9M0yIvk8Pi74WgnI+YHmkvio9kL4PKme+0pMAvhUNpz5G658+oGC6PmlmAT5Ip02+KfZxPq04gL5ro1i+NI0fvq5Ylr5AwJA+rcKAvr9hYb6LFiM+WMUHvrDecD3L03a+NiH1PWsmP74v1em9VHIfvpVDYL6nT14+0Dhbvi2nXz72rzq+5/pBPhKHGj321kk+t81LPgskbL5flT8+9yZEPiKyWz7BWJC+xSUOvtmGtT3hRyU+O2UXPgj3lD0EaIe+KTIJvk2n4r3IG4o+O1bzvQCdUL4JEnu+xoZuPvfZJD7czAS9jngUPpoZor2kFCQ+OItdvlLv/Dwc/IQ+kqlYvkfqMb6yHbK9RYXjPfONMb5SlCS+41Z9O/orAL4cUX4+Edw5Pvk+MT4d6E++5io1vpCHiT4H7Wy+hqRnvklOur1roHS+71+UPjCvPL5BZEG+hxtRPrhf471jC+C8kCyFvgrMKT7IkE++c4OVvdWfwL0HU2S+EWhfPt8Vh75jGQ4+LLs4vnapJj5qH789ojVAPszuRD60HWW+K9MYPm9qQj76skQ+9Z2UvhnWFb6dXug97uEFPgusYj4muN488dVJvh6/L76mHDK+Pk1iPrHH6L3SxkS+bpqNvkqigz7OzBE+WqxhPPYbCD5q0bC94wFRPqENSr7ygNA80clbPsuaY77bHk2+pjTkvdt2LT6yV3u+4udmvkYoIby1L9a9eMtMPh5LQD582FA+X94evm2lMb7wRnO+vZIRPgi4+r3zK4S+PiqUPuAPkb4XLOg80FcZvbaJk74gIh+9GV8QPgydej6p1no+TFKSPkxPir25cYO+zaVtvnxgmD68DaG9VyJ6Pr1mdb4bMvk8VDVevpf1aj6EZDq+0HyMPUtaMz7Mtc69KpaPPq17ST3WEre98x8/PjeQnL1i73s+aJunPbUGCb5qND8+XbkpvsRrSr5zXci9e9+RPrnzqT4B65k+LyNBPmMygT6c6/s9p1kBvpNE2T07jxe+xgoBPjjECr6S3wW+fL6AvqSJpL59gGA+FLpdPrdG6z0beKO9cCoXvWB+Cz6RI0g9w8UgPBg3Zr7eUCK+kexgvrPGPD6cuai9bPaKvjzzgz4hmJi+n5nPPFSAKTwpl4q+2DSkvfJhSj4DKq8+Nj+oPlLwgD65lDk87YaMvh1qWb5DvJI+NxmSvYAncT49b6S+K2bYvCJZab52MhQ+T7FcvoA2ID6vOis+H+Qbve9foT4SZ+89tKPkvNcqWT6X+Qm+ZplJPpVnEj7Daf69kK33PS+AHL4T9l6+odjTvZsaiD7Jj44+KZCYPnNACz7utK8+NBZFPnlZyr1oQLM9cKtSvoGI/T2hKh++rpzjvWFXm75szKC+uSofPkNfRj6a3hk+s3y4veHUqLxgyH89HBmyPdHKGb1wk1++20NEvuL3c75l0h0+RuTEvbV/fL6xfJk+IL+Bvn61szyHY2i8IlSFvvUO1L07u0s+toacPm4Oqj41PKc+OA4tvPmkoL5PB4C+0+OPPsvnnL1ImYs+GkqIvjaoMb1TaI6+L6M9PjNBfr52T4s9QsHnPY46sryRCo0+uFhmPRcYer0zExI+TBUnvqHugj61VhM+y0YJvgNaMT77ZiW+0CY7vpd9vr15wI4+VayePkXxmj7jMeY9ooOoPlIOCT6FceW9MQ7yPaEN/b1n0xA+W7stvmbWIb7lHoi+eBCgvuJWUz5Hrzo+hDspPhhMer2dqH48ZLP4PTVSET0+4Q69Qik3vhR9Xb6XY2a+7yNBPvqb+r0xsI2+BQyPPkV4pb4PwFI96Go/PUcWdb5LdnO9N3ZGPvzVlz61p4k+oHqNPuVv6Lx+63++499Gvi+Vmj47CgW+grudPmBUh77B1Sm9YKyCvm1mSz5hxy2+KfgRPoBJIz4Cw+e9yNKBPrMc9j2xd4m91LEGPjxKBr5jwoE+9feIPQyPM74TtyA+Ja5GvpUZEr4oeDu8CzOWPjlcrT68r3w+SmosPh8miT7kxzs+I13pvf9eAj7VZvm9vRS7PX0kCL6ep0W+/8NdvhYDi779fmU+7KWDPm1X1z2YZQa+7U9+POL8Xj05Mf88FdU9uxR+Ur6146S970p5vuB/oD4ZZfG9v7R+vvkGmT4E+py+b/4WPnbQKD3Ut5y+hs8JPQriID6uobQ+tkyHPiKSkz6i7QY9Zc2Vvh6MFL5IHFs+kwGKPYI/ez6dA3a+m2A8vULTgL6T4iE+kYVRvuzfGT74unk93uQ2vXKWaj4YAig+vmA9PRVI/D3wpF++W5ToPZPmwT0Yn0O99KgOPpJv8b3bbRa+HYupu2P1iz7oIbc+cHcsPibhmz07u6E+kraePUrJgr36Qo+9pSG5vUrJBj7StUq+YxNKvVJwYb7H9WG+7VwPPhV4lD6n2DY+W1zevKzwqLxJuhq7Rx9rvSlJGr4L/yy+xWAAvkvYgr6Q4KM+k14UvYsmbL7RtHU+TJOxvo/RET4/7kA9a6SUvmM5TT14Hxc++wuXPg8Ijz4QepU+EZm9Pa7TlL6jJlW+oyBWPmclsD2+oGI+P1iRvol9nr1kRom+JyP0PbjrbL5baRU+cgyjPfy4mb1apEc+OO0dPv89xzta+LQ9sZ9SvviJQz7vXrg7pDkNvaoIJD7KN9W9cAUJvm8LhTwZdoU+qMK1PhQMUj6Ob5M9R4iYPnieqD32q7G9MCtOvS0Inr1LW+M9xpZqvohSYbxSJWe+U4uGvov33z0HLIM+Rw5UPrtDjTwGRzW9Ktp8PQs3lbrfQba9J7kvvmiBKLyYYbG7aIfGu8b4oTy0ZQe8MP3su9BmrTsiGvU8Gu+jPOg0NLzh5Uk9ukeUPM3qOD2NcMe8+l2aPJr96DzgoR29EWEGPZo9Jb063iW9c3cLPQlJRj2YXlW8ibQ0PdH6Cz3ELAa9GOVGPIwJVzwARv+4aDsuvB3xPb23xj692JU6vHOgFr0YRyO8bm6PPHP2PD2ko3E8hq0bvTIt6DwAHus74ElDvVAR9bvuXYs82jG8PLqCF70NGcC8gJuuvOfsp7xpmig9w/UhvZ2mBj0AwIY2A/03PYR9WjzXDky9bXbAvKKi2Txyd4w86PDsOxpmujw6LfM84NqEvJp/0byoNw48AN6LO9EnKj2Nfr+8gCP+vKAQvbx6hL68gKJOOozuN7wATSA7QKfHOocnqLxJji89aAzQOxTxhbxaI6s8zGxNPLQAZ7yXmwk9dCuGvNqg5DwaHjm92k6KPHMS2bw0YBU8Zg+NPECry7opaQw9ckn/PGhSlDtg0Rq7DLaFvC07NL1adRu9mI5WvM5vuzxmGuU8p+o4vQxdSbyZAgg9pPxWPJdOML2m+BC9LnvMPI5g8jyoAC+8XXAHvUD/u7rC9rg8d9oYPSEpEz0JxSo9c8E8PbADgTsMmSy8Mmi1PDTAKzydlBy9Z90VPdFOCD2zr/q8gJFlOs1FBL2Jnic9bqtTvqf2lb4CgYQ+0sucvWqcjL5AEcQ+7fq4vsBiDD4qrgA6RiWjvvNAmr2D+B4+Y0WuPpNbgD6DzaU+bDHOvfN0sr5aEIK+FvWdPmm/Arvno4s+btymvm+nyrsyzH6+oQ9SPgvXkr4Z6Q4++kkJPhYRPL3wx5g+bGz3PWWwE76MnVI+LgGuvTiCdj7jEn08xGlivpYjRT74/Fi+qjE+vvju/714Lo0+P4qZPgIBjz7ySoc+W8GtPmenYz5ADDK+KmAxPv60Er5r6Tg+Bgs/vsNXKb6jYKS+CiCpvoDVSD4lzWk+2yp3PvOoML7lvcS9GJB7PfriDT59tLm8iq1MvoBw0bxTUPq8GgK0vKAsc7sAGso70Ac0u0EQMz1gZEM7Z/4TPdLvtjztOcW8p8X7vGDeprzTVjS99CNxPCOIOz0UY5a8WmT4PBj3rTtuYOk82FAQPCpQIb2HzvW8txwiPRIcyzwGnqI8tHZxPEDLJjwAD3A7kcM3PQBaX7uYKvm7YFMNvdBqETs6vwi9w9ocvS76qjzMpBO8ALUnvZgLerw9pRo9mI1GPFfvHT0Q6SS94eE9PSDZxLwYmyy8QYkFPQxGSzz6xye9gNkKPGfk+7zt/bu8ui+4vOL49zxhySU9ow1BPUx6cDzYgAu8aFTxuxhWOzzy/Js8mFg0PNI49DwYebe78gy1PATBUTydDUu9U+ipvCpJCb23GRY9XT4ePdAgfrspuTM9dPVpvImcCj0TWwE9h1I3PQYe+TzmEpg8IjK9PE0tOz2Yp4s7jN5EPFcAPT0ANkG8E+EBPRFQED2GiSy9LSNDvQBawzhHBeq8JpHqPO6/3zxYUWW8t5sSPd0CLr0YUjY8JHRUPFBiFL10TWO8URtAPYBrCTzQfbi7QCANPBxhdDyAkdW8OdECPYmSMj0AcCA5xExUPLO6HT36jh29ANyvOszQk7xndtG89EIuvK2HKb2X/Us92ogAvQAE+rvodkq8bvqZPMf7RL06qjS9mljMPIx4FjwEo3k8lRqGvpykjL2NYZs+j9cmvnWdqL5F+MQ+PizAvqNpCL7GLzy+B5Okvow5wj3qsms+NMmnPgf2gj56jVk+YdZBvoOVsL4/DaO+mjCmPqQUib5nuZ0+4w2mvmUvPT7xHHq+E5ycPsvGub7fYoo+UJ05PnNUOL4kcZ0+D2kGvtDaV77YHns+6agLvruOlj7HKYK+m1Fpvo6phz4Wmmy+iLuMvh6/i74mf58+UYS0PrRMmz4IRps+GGiiPhRtgz6bPWS+tNaFPqZ3gr5+1YQ+8PDGPKyXhL50n5W+j6XBvtxhdD5uhZ4+FsJFPqSakLw+xQS+baqWvE2gXT5EcwU+ti2Zvi68eL47pQm+yaOxPux7Mb5OCY++i2C0PsBix74f5hS+jq0mvkGEub5NvtY9Fv1+PkdtrD4IYqA+TNxuPkHrXL7Y+qm+M1yTvmqgmz5caHa+QhStPtThpL4xkjA+awZjvqcwej4NpIy+7yI2Pm7teT5GXAu+pwS4PtGJKb7ThlS+rxONPvPaC75a+Jc+2H5jvlOEpL4weGk+p+qSvtoEq77+zlS+sHugPrk4vj5AT38+vhWJPmiIwz5EdY0+Ri+OvkWljT6Y+22+yKqLPmBPbz3fQ5a+6gqqvmM3ub6Ki6E+iACmPkWWUz5NU3y8Tx0xvoTcKrx/Fnc+ZK/OPdQ5XL5X7Tc9sJHGuxjZcbxaMhW9GOfJu2PTIj3Qnlq7gEVGPIDyg7zoQOc7msGiPJjWyDuA6j26sWNGPVM6wrx9nxS9xgW0PMD9DjyiBZc8HftGvQMFCT1Wkyi92IUsPOODRL1psxA9QCfkOmJ4wzymBiG9oMEKu8q2Pb3kMng8kq2VPPpvJL16+Ua9RsfSPG7Iijxa0vm8M8DJvADorDsa1dm8NKplvLPx1bzSmug8JPgJvfQAXzzAK168aK8+PO1IPb0tkzs90N+wu2nMBD0q/R29Z084Pa76hjwSh8k87Xb1vJh5cbygIyy7rq29PIAxxbzTMpy8h8KxvKad6TzW3SW9t8Z8vhdegb6sJrk+z5x+viWhcL6mss8+3iXJvkcBej44FFy8l2GlvgS/dj6aG1Y+3gu9PgQLoz78V7M+/FnaPb2XnL7SGI++XPWUPkRN+b0mvj4+Paqxvt2Y6T2Bhpm+dICQPk+ow76sHbQ+zdFaO0bgH75lSXw+0+mTvZqhyL32pyM+hx2ivg3rYj6MHmy+PTqWvRCdjD7kKia+X1efvmpZzr2b2rk+Hf/GPp1Ljz6buuY9YLK3PmhZyD0aJkG+/0KyvYHRiL7B7mY+nGUPvotmUr6buJG+aBapvh7SLD79hKE+A0ChPjopgz5txjS+uLZxvTqjZT5yCIq+HMyIvvaFgb5XA5i+OUq4PlCig75uIIq+pkLJPjEEwr5xqWg+/LGZvUdYwL780H4+oohEPlHo2D5HcY4+p2mRPoixyj3z4KS+b0mUvrBBdz77Qei9U+CJPpidnb5V2lI+zHmHvubijD7+yqi+QcyVPiBErD0ik7G9bcOnPrsE+b1L8Ky8vvU0PqRXk74zeG0+syd6vsSos703a4s+mUckvqaKrb6PEKm92c3DPhRv6D6ySYM+JREKPgoLpD54t1M9yEs1vpnQvTv+mJy+7sk6PlZY5L0H/Wy+s8CcvoNJo76mGws+fPOXPrCmnj7etoM+/jHyvdf1Bb5jK2Q+HfZOvoYbcr76T22+3NORvlc1oT5gs6C9PtiWvgR5yz6dZ7G+otwxPq3zdT3irZK+6mDsPaYRIj5zkaw+LuOwPp230D4EUPA94LKEvl2UIb4gX5U+kTsdvXmGYj4A5Im+vZ6+Peq5Yb6nFkQ+QfyavkVUqj7QdFW8XyEUvqxKdj7YhxM8gP/DPS1cEj403Je+TG4DPgISJz3f1Hi642dWPobdYb2WRJy+ynFJvUeapz443LM+jwo0PkrfXz3oYLs+BffsPOl9vr3Dqwu+gVFfvvW4rj3ySgu+kO/Dve60Kb5F60K+9aNePeajhT7IjYM+/nscPuRBlr3pmdw8hiXAPKfef77JBYK+YDIyvu7no76DcLk+gP3Yvb1Qkb6hrsI+KQ+0vqYXfz5iJRU9aQiSviJ+Nj7NYxI+aKCuPhAiqT6spdE+2fvBPbUvn77DJwi+wtKCPjgwk73VmDQ+vdNuvm553DyGZpG+pLBOPnzdw76UR6c+/oABvRRZqr2LiHA+LTxNPYh1wz1KdAY+fXKsvjAuBj7TUUM9JcvivBP5Qj5vaLC9YrKMvu4XJr2FWaU+Ha67Pt5gIT7RhZw9iN+bPlMOwrx4+t69bny9vV5kQb6CPwM+B/YjvqXby731nS++NclOvoFNAT5FTqk+wzqEPjchDz6z0WK9o3hSPYGOWz2DCpO+KSeAvhd3Gb6wzZ++w4RtPkVKYL4Lo42+V22VPheuiL7eoJA+xg8vPisKkL4uxKc9jejYPYVSvj6vCa8+gkGEPpyBqj206Yq+enlCvuaadz5z3Jc98xB1PqTznr5rZfk9JN2qvrSn+T3jZU6+k0qFPnMzHj5Mje88/o+RPnE3kT2LYps9PgHUPdAknL5aNWc+cfdhPQ3kujyPxzg+eyc4vd8+Kb5ZJzA917CyPk1blz4iXpM+U8GvPZh0pj5Rv3c9W+cGvt52D76g6Ye+hMSrPT+4fL73qne6BRdnvoPZi74MYPY9M0+ZPlDgkj57HE4+PRGrvTB2fj3oheQ9N6tuvjWFKL4GV4A8rfX1vKNUOL1Nji69x/H6vC0WHb0A9zw7wKD9OpjrdLxoEQo8aNAmvNTYkryNdjI9ANAzuXoGqry0nRs8dKiBvMC2BzwoskQ8skqXPEAF1rptFPK8RyQGPe1jpbwRHiM9Wof8PHSUJ7wzSei8dEpNvHpT2LztYz69gxE1Pedw/rz0qy68jsnnPBlGDT1pdz097pvaPMAu+LrNAEU9TdABPS2xRr0mM5O8YKIju6cBCD3RRAI9bQ08PYZKirzDRBq9ALihujekLT2GQdg8Dmq2PKA0DrtTcTS9giL/PFqX8ryidtY8bZ0qvaBMPb2Ov/08TWEfPQDCKTyNAp68NEsLvW5OpjzWCwm9Gu3+vA0oRT3a4By905SsvNE3JT3Y0kg8TLABPIHSNj0HNTW9QBVlvHTEaTyt1hS9mJ/qu4MZHb1Q5KW7syenvBN/JL2A+EE82mQJvSf5urzo6SY8tPJRPAk6DD3kp2Q887kGPYa1jTwtkwO9pke6PDR6IzyYmR88AqSePIDF/7sYkS08KW8/PUmhEj2xSD49fQgSvSdfSD3iNfo8wvKxPBjs+buaMMq8GgbAPJO6IL0AtpU701ADPfSJPzwwP2C7Wh6GPHSBBb3Ny7S8zLE9PIB5HTqn2Ni8QP80vADF/byGQp48wI9QvFijRDwx5gI9czxIveibUz5j0UK+av8svlNyHr7SSAQ+bugYvss4cj6iN4c+JU8ePjl+Mz5Q26a9H5sTvqrdX76x9kk+7m0rPsMtBT6tGks+/en5PRdf2rxkCkE+MOpCvr+pSL5lcPK9gV56vib9E75FA1U+lG0KvTKfnz3EqE0+Pho4vpKJGD6+i+M9jZ9LvjqDFj7eMB++GLcOPkQiFT1BoXi8gc8lPoK7YT6XNhw+uO3DvUrmZD564y0+YS41vkG3fD3bV5E9ySQePsZtS77s3Mg8F3LnvYJRN75/QCw+2CQTvkjUa72l6Fy+aFlDPrcpzjwXFIc9ETEQPED5KT5vH0m9+9Yzvo3aTT66Bns+pKcCvjqz8b0XhGC+gToQPhbYXL7WvoI+tx1iPvNXUz4/4hE+5mQyvT9EC75c3x6+6Zh1PpEzFj6JMh8+MUpbPtTT3D0Y1RS9OXY8PgZSRr6uh2y+lqcHvlxfZb7u2De+yzERPn/Nn725Iok9LOBVPvNWDb6BEdQ9pzgIPr3fS76sJq49Jy8KvnJNUz5YYnY88rsSvFE4VT7bslo+pD0VPhOyNb7J6FA+khtNPr4UGr4ieOE9uQNMPW4IOT7MsDO+qxs9vVuKsL1c9Cu+xEhwPjRphL0Qipm9n5Z1vnRQLj6qUSi8H11YPSi7FLtNEC8+uRU+vLrkE76qOU8+Et9cPipqB74ADUo91aMRvtp4ND6jsmW+C6dyPnUfXT6jMj4+zGPePT8OZT2orC2++ekjviItfT7Omno+lT9jPie7Xj6k4Mg9yYoivjtofj4xpHi+l883vtJhD76tXFe+fC1avs2dAT7XGOE8/uu0PO50Nz6vwkC+QhhBPt0NLT7HK0S+S7+XPdqHHL4v9Co+xa+pPZOMvzqrTT8+EViFPok9ND4Edcu9j4eIPgk/hT70uD2+qUX1PZPkNj3BP0E+uR5TvsCAo7zavby9+VSUvuLaVD7niQK+cUNKvX1PM75JsRk+dsebPQNx+T23J5m91Tk9PvJmtTyEnJO+AiA+PnlWvT3Kt2m92uisvevhx72byww+/8FGvo/BKz73J+g94PTTPVDh2D03Cje95aAYvkMl672cVzo+SbnyPZRHRD55e00+WPw1PgGNg70eQDI+nVs2vuISDL5Mlri9yRMbvkaDtb2p+B8+RyWVvEsvKj1YauQ9DVwNvovWGD4tM+s9KSScvTwmxz27SQW+DgIZPtALvz3n+fS9GgwJPvJcBT7IPbI9+4I5vQh3PT6DCzI+wtqhvSMc8j1x9QG9beQyPrU8Ur5JMAc9AbjWvREqyb16KxA+nrORvYr9KL1xVgC+AabUPRRl3LxeV0S8d6msPRCnMz4jSFK9Rj0GvjZt4T0YuzE+jr4Dvr4ii71xXy+9OSsgPm2xWr5ptAc+f24kPrfYtz1c5No9+O14vYucM759ity97GYpPip9Jz4Oa0E+OIcWPsc6/D3NlR+9y8g2PkkYKr6R8SK+ba/AvdP7xb2bGhC+qho6Pn13l7wA41k9r5ENPn0HDL43vys+AFq6PXP3hL23tdU9HCs5vun6Tj6eN609WiSXvTr9Gj7+bjQ+v68TPlMzWb1xuxE+DR8FPsOKFL42eyg9RIIGvemByj3XV1C+eIKKPT5imb30Hye+32DKPXky9b1lxte8GzU9vv6EJD7JxoC8v6Z5O4LVij1zwLE9lQWuvTZbFb5wtew9urrWvNDEM7vzwka96L0kPBABQb291T+92kLfvEAfgrrALhE8YL5Ivb23FT1apf68LWvCvKCMBruMv1O8UzbyvFAIiru6mqc8MQA0PbFVOz0oLjg8rq/YPAC3BjsArDY7QzVCvY1OBz0mRvQ8jbrfvKCaKLut5CY9Gm2zPA2DwLxpVxA90CqmuyNNMr0ZjEo9mhrgPAloOj0iLOs8h2S4vHoQ17yoIkU8eg8vvQZypjwYmpO77FuIvBjMuzuwIcY7QkHoPG2aBz3NsD89MrnpPADftbyw9/S72BMcvKnBED05OEo9U/I3PeT4bDzn/ei8199LveA+KL0aEba8x3oxvREVaj68Qhq+B0+PvC8ggb7ocQw+sb0hvnU/RD6xAVQ+WGcjPiOH0z36VW29PugivlPnWr6Y+mc+RnBBPlnCWj4eA1w+tNmqPZf31r0DEkU+S0WBvgu9Ob6m+0i+Q5BvvgQiLr6W1cA99e0cO5svUj0QzDo+QFY6vqLHKz5XZQA+/YL9va0sFT5Oj7W9q+w3PpvaQj2OJrM9jqNFPgq4hD7C6zw+dBSOvfCRlj7nIXE+Oe1Xvr0Y3z0k9Q28L9JFPi9FXL6TH1K9Tl1Avd5afL52ujU+RDs5vtxF9b3jEzG+teRQPricsz1/coQ9ZQApvRSOaT4cMNy96a1vvoZmIz61pYM+J9fpvfWtwjyfYHe+FHcUPuKrMb4tDls+PflNPlUmPj4oag0+kpebvSqZ5r0TN3G+bzNzPg69Tz4IJR4+0wA3PmhsCz5tuZi9KMSCPgubRL5eBGq+o/MWvn5lML6H7Qu+K9G6PVciXDuvDuw8nEU6Pie9Tb4yYi8+GU9wPYuaE758Cdw9ihD4vaA98z0H4rI6wDKMPVYPUj7Trl8++JNaPr9b3b1dUYE+8nVNPtnWBr7Ajb89uuh8PbXW3j291X2+rGEFvSkCjL08JWm+jU8uPuobub2nAQ6+86A1vjFVGT6KDog8OslhPUhTqjzdeRk+J/phvbNlTL4kpBA+i7VbPjnYRL5ZKQO+isgRvrSxOz7B0Ri+6QyFPuygez50C3Q+OKjRPa4nwDzo1Qq+XDFivstHQT5YjCU+8BL4PfalOD5eoqM951CUPAZFgj4h9Ei+ixFvvvT36L19V1K+YRQkvnwZGD7s2Ui9qgJzPRrTCT6VwQi+wYYMPtWB7z1BtAK+UONyPS2y2b2XPQk+Evo8PPmUOj1gu2I+cdZ2PlFFZT5yFb+9dJt7PpqNQD4Pjja+nGiiPSIaTD3hjR8+zgA+vu7mD7tVPxC+BhOHvgjHZz7hD9e95n6cvcqLJr4bTQw+I4CvPSjQmz0JZjO9Fm4IPsavgr1DXxy+PTsjPpwzKz7Dvfi90OjZvXak9b3AURI+0v9ivsxoND4YUWE+WYljPgLPID4QdU08Yn0hvu+oUL7zw1s+RAwpPkSv9j2j40E+QDPSPe2xcT0lR2o+aj9avt1uQr4D7TW+W8wsvtU1Fr613QY+7/XXvDlYmz0bGvk9+IhAvtJWUT4rNIs92Pwtvm58yDs3y5u950lZPooalzzx0rM9jAVXPv+lJj7kz0E+5JfQvc2yaz4s0U4+iVguvoOD9T0Eaj49yrwyPhVTQ773rwy9/4lSvYdUKr6ToUU+xpUZvqSk1b3GdAu+8HMzPvU8aj1WNbI9AfA3veHEQj7uqOi8a+9jvlnWHT502EA+pjs/vlmN7b2UeSm+jvwIPkaNFb5xjU4+7Dt5PnLegz6V1gI+BcofPQxyDr7DNHa+RfNRPpUhcz4oni0+rYF2Pue3RT6BYLE9vCWIPnB8d76TEja+kw7lvSUhh76v/zu+DcsePjyInr3QiiY+qr5hPozzdL4ScjI+Z6u+PQfeHb5ATlk9pjTmvXD6MD4xgPW8LoyfPQD+ZT6LEVA+iApWPmIVDb442kg+A8FXPkAQRL6/Uqk9IpSXPR9QEz7wznS+hFXovUMYcr0ztZG+muI0PoxVQb4v98+9b5YbvrrNPT7uYDA+En31PT7Uo71sMFs+DwvpvBMLOL7fayo+zuwqPk6CWb2KwjS+oBwBvqod0j2foQG+lCFQPp2pFj4OVe49fJzCPV+Ggz3Wpw6+FKA0voStTT6Zgvo93H3nPY01Az5BHQ4+sQwOO3tXNT4h6w6+VsYIvtwbh73xkSy+R1Qavv09+j3N/MQ8eKO1PGsU6T3sJcW9Ak0TPQaaAj4ct2q9d75hPAg/571nyyg+hyqIPUBOPD3jkQU+QuohPrEWwD03Tk29abUuPs/yHz4NMBa+D/xTPZf8AbxMaLY9x2LrvVJziT10aJO9vBgOvrqnEj77ntW9/QEevtX8+r0iMA4+wfnCO1htrD0B+ny9zNTGPQaTKL0L/fy9H082PiK7SD7y+Dy+I5IbvqZgS75e5uo9mkeHvoRVjj7P44w+K41uPj8aJD6yV5c979ApvqoeWb5Sg4I+3UA+Pte4bD5hODw+zfz7PZvWqLvwsIE+axCTvvVgmb4Vx0m9L3mDvjEUY77wzl4+tbqqPdEL9z0Xq1Q+U8iMvr55Bj6DP/c9VKNuvtacqz0rGiC+ZcV8PrbiXz2ofRA83Kl6PsY9YD4q64Y+F6tqvaZaaT7QvpE+XA0ZvkaQLj4e6rI7jDkaPusLcr7KVia9YjfavYhhkL5xB0w+NLEQvnoVB77+2lK+uQg5Pqjkqz35ESg+CaO0vf2vXT7wmW+8H/lBvpzCWD6gdoM+roRFvt8zEr5S6WG+/9oBPsOZdL6iyIQ+vsSTPjlXfj6KmyI+UBL8PQKOWL6S3l++1M6APj9JUj4F+mQ+3VN7Ph5YVj4O7iO8MZ6RPvkhZ74ewXS+pqfYva4XgL50LkS+vRJ7Pj0Ekz2kdh4+WxcfPtPhbr5HZOk9lRzyPaQxNr52Yf89Z80AvvnuUD5GvUA94UuIPTOWXT6K83E++YeIPhUvpb185Fg+WfWJPmT4S75urwc+gzqIPNZWLT5K8Yu+/+envdDu2b1suYO+S/WLPtX5H75Ohde9iOg5vodFhj5wPVA9AzopPqC0Fb6wZyk+SvIqO1jUgb6GcU0+kt2WPgXaz73IuNS9sUJevgodQD5g846+WQuePlNwpj4JOVE+i1rtPFjcOj71RCW+o2eAvkVcpT6yEEc+Pz5UPqXPhj4myZU9YHlhPRronD4guYG+RVmfvhq3rjy4c56+NZZYvmJ+rT0iBCs+UQcmPtw/hz4+1Ty+sdEsPV56DT7X9Ue+JRKxPRoO7b0bXXE+tFHXvUdhNj0m0Yw+qjdhPlF7Sj6GKEK9A3+gPqoccD6j7VG+4TRFPiK/iT0r0S0+F8KdvhQrZ76cunS8i1aYvkqIYj40B3m+yO7dvYnolr5ANVA+JngjPt1qTj4z6w6+WAp1Ps8KST5244++WXeDPmQQZT7bEP+9WIWevedjdb5i24M+lz+Evr/bsz6+u4w++QZ5PnSUoz3UzkE+LpomvsdZib4KkIk+xjCBPps4cD5VMKE+34r5PQps07xfY5E+XGmlvpknrL7laGC9gauVvn7uSL4K8gQ+1F0kPnIg8j3TBYY+/KF4vgKr4z1lxRw+1Z57vmJ5dD2cJQy+Vj8zPi0Fgb2Um2E8pJ2PPlYPiz6K/1Q+2z/TvepHiz5hKpg+cRZfvg9iQD5a5rk9lcJUPpjekr4Wkla++41fvQ+si76qJJE+PnRdvnuGNL5ZwoS+IcaFPp1m7j3/pHA+3xKMvf1tSj6l51s+qnmIvoBTgz50GUa80O/3u2dMnLywgje9pFpoPDL6xjxjXxK9Ts+kPGwghbwzBxa9XWstPWqzBr2AcDu8wN64OuYRvDwGwpA8RhCPPBi90DvYtC28aM+lO/qCxTwansS8t4NAvaId4TxTjKy8elXpvMlmJz2c+nE8+h7lvEOzRj160bY8WY0MPf0AMD3A+Jq8GOQYPLTYa7xaBSW9DBNtvGDb67zafLW8tBsrvAE7Hj3XeD89M2VBvYGdGj1dISg9wHwpvFllRD3t1De9wueePGeIMb1htCk9QEopvCqsKr0Chr48ITErPWAIDjvGgAm9QLEGvYZR7zyS0bc8MwFBvaA7trzQ/nE7k3anvIDaSLzXJig94tbfPNAw7bswHZk7VnsGvbrKSr19Z0m9189DPbCap7sjYig9AgeWPFo/jLwYJqQ7xxkHPcDaNb0k2QK9rR5KPURPZDw9+Tg9rBaBvGD4ZbugiRS7msRAvRJR5zznCiw9WrgQvaGELT0Ajsm7AIgwu2BJvbyAog28qIwIvJKZmDzqdRW9wKgHvWgEPjwwl+E7oPVtuwAKDbsAGnQ5nUJIvQ7b1Twwt+a7+j6sPP2zRr1pog49DGgKPIMJLD3T0D89NAxBPOiewjvaiIG8cC4GvSlAAz3QJAO7TjriPAl+Jz3yQ9c8PT9CvQZCGb3Q9zG7ZOYHvST+ZjyERm48QBdXvFMRMT3aMfA8h2ZJvSoKB70wZVe7wAA6ve2I+ryykeU8gHEFOkzfXjxASCc8BhwIvYa29DwmPLQ85y6yvADcbTrwWQS9mbcBPQfWpbxTEBe9oAfqvCnIND2M9S+8ZCtZPBqX9bxQJ7o7TjCtPJoeh7xMHHg89xsuPSoZHb3HRi699pUPvRGsIj1xfkU9svzUPFLRmzwD+ju9dmAcvTD9ML2g6dW8QHHKOipHML16ipe84hKJPAd2w7yteBg9it09vc2jsLzyx/M8R8nTvD13DT0uc7w8UDWau+cj6LyNDey8QA2aOnJnhjwmegS9QCh4vLC2Db10cnE+UtSBvsBUSL7sEVa+u1ELPhtNm75BrrM+xgOfPl6Wfj6LzlI+GJYePlcdf74xgDi+SMWwPkaGnD4ss4U+XJ5zPmA/Wz6UG8g9MKOuPo/3mL6sqKC+VuUXvv3yor5J1WO++CWaPqAxPT4snT0+8Ik0Pm2Nl74HEAQ+eYiDPveOgr6aLrg9EC45vnfAmj5emFs+uGnYPfg+gT4//Zg+Fb+LPupaxj10nLU+I/qiPpmOmL5OPb49H6lFvLk+HD5rNp6+RsUGvtGGIL5iHpG+q2icPhrbt70VRzY9tPhuvjHEmD71CSU+pckTPnMo0r32sYk+tYiTPXbRur4OrpE+rDR9PmH6/71rSyC+m5G6vYzSVD4yxB++jZxjPopbgj4h/1I+C5kyPgXqw7ri7BG+Drh7viIYbD4+7zk+lcpIPonaLD72dOM9fE1pusppRT5Gska+v7tmvpUBx72t9Ue+yoFVvmLbUT7kSgY8163OPYYiBz4rBB2+z2cVPuiQrD1CIQG+kHv1PZQK/r2fIBs+iFyFPBu9hbyc60s+49UpPm+BcD7T6ha+owCGPvoUfD4esVe+/dCaPd2GPT0ADTU+g1BNvowEjbymnwi+8JMrvivnYD54NTe+TiazvV+yJL6JVE4+pczCPU/KgD1xejO91kNGPkIy4LyFfCS+ewQMPmVlTz5+1SC+n2EVvp/yo731WBI+fckIvmnnfD6WDzI+B2ZrPvHxCj4VJSg93LMDvgGlT77ZMFA+kJE+PuP4Lj5wWzE+HQsCPmGAxzxzZ2c+hHqBvm3sPr46uf69FwIvvt69Nb5ThDI+yjtqvQfYBT6NmUo+WV0Yvp8xDj6+4qM9byrwvV1fij3HGra9YU1MPoTEZjzLE887O9gbPhuePT6nVC8+Ds0RvuDEcT74rU0+20xMvn8cwD09ww099Kc0PiqROb5O4qC9SZAAvl8Fgr5DWVE+2m4qvh+N7b3Rn1e+WhVdPqZCpz0wPng9oq9MvESZND7inxy9/rpmvk0SED70W0Y+TGwBvlRnjL0KZeC9GPm0PWnfGL7wGF4+A6hlPpoAPj6Xotc97gA9vaYl9r3Tkyi+NCopPl3YAT5ZFDE+5BEfPsllKj5EI7O6ggNSPugvS75DKxS+1rmRvStxab4bTDG+esr+PZ4pnr15pyc97WjbPTYXPL5+/y0+tPYjPnSRL77sw6E9v932vaHgYT6wtYI9WOVhPDNQWz5gnBA+taMgPr+8n70h0Dk+Cz1HPh/RC76tJXg9xZJwvMR44z3z4xO+Pa2VvEbdzr3S6xi+RqgxPoTJ1b1BCLq9MWkZvrQX9j2dAIw9ddGVPBpYFj1mBhs+TrSpvXK6O74Mqlo+0rBVPvzKAL5Hg0q98KXjvRdB4T1BaRK+2DYpPt94bz408lo+XLCuPUgvgb1nmze+W8I6vvxSQD6TJCA+8HAMPvusBz474hI+UEVhu+PFOj5U1Vu+O4ZbvpDaBL7zo1y+EAYvvgx9NT5Wi629d25lvF0DMj68/0O+D3XlPQRVmT0wETS+eZYTPVffr72BGRY+cigZPZGJvbtu4VQ+prBTPqHRDD6xhjW9jz5IPkj6FD6IjxS+4ykEPnnUX7wY2iA++IMrvksRdr2E0wq+IYIVvqUwHz7Dcc6983Xmva1ACb5xJPs9ALMxPSEq5jwymW49/JgZPp0IU72WxDq+nvATPiyaYD7s3S++/PYEvmbv/L29Dc89cHEevh7zXT7DTCo+GtY1PldeCD6mWDq9Kz4cvlJrKr6svTU+sNM1Pu8zCT7SuCs+FDXAPQoTAT1NkG0+cRcIvnkMGL7eBvG9CaFKvhhbML5O70w+FuZbu92SyDsjICc+UpEkvj7rDT7qicE97qzZvbcWyD3VoB++x7YTPm8deD3dIhq9keRGPrQWXz5ruEM+VwvevTKlNT6JjBg+/pM5vtvC+T1BIgA9jGwgPq1wa75BUFQ8cEjvvWBtOL6fwTM+ayqVvToAi73wQRS+jKsXPn97Irwbrfs8rgB5PQQuRD5AFwy8dSJcvhU5MT5KzF0+iG8jvvilzr1yFFe+mB0iPlNzgL4Yy4g+VVxTPmDEUz4Ned89bFdGPdS4I74gpDW+E+90PqU6Rz5hBxg+9tY7PmQotz3rcuW8QDJdPul+g74pxJS+BFgnviYSlL5eDQ6+oQzZPR4e8zyBexw+qXEnPk4/Z74LI2E+q9uFPbKuRr6LMvg9+7HRvTKjYD55JQ+92FYnPZxSdj7Jqkw+CustPops/b0i9YY+WQ+HPsb1QL59+Ec+jRh5PdV6KT4AtF++TU2gvUeXxb3djGy+daCOPu5uO74azD++c00xvmvcZT5olwY+sEgjPqeNPb2/ARY+AZsAvYRXib7onmc+ABc/uxo7xLx5vTk99JE9PKN/Fb0pqhQ9YuvwPDq2rDwTXM6895cAPXKn7TzGOim9EqW2PNO81rzN6To9sClKvY0yPr3an+a8wEElvQDFMTzDkxk9APu5OYOGJz1yL+08KushvcCslzoMfHO8rdahvABnfztQli+9QC25vKdyRz36H4486MLmu8feMr3jlAw9QEHpuqMzDz3M6Fw8AIc/O0neMT0NDEw9h9LYvIEcET1En1k8KKh4vHQIV7xo12a8wIBUOg2gBL1QzBO9dDg7vHrQAL2gQ4k66LduvPRjCLzHaty8zOU0vFoc9LxnIvC8xoEavcA7LbyM7TA8gCQyvaBFibpQceO7pFNrPNqpvLzQ+3s7dMcqPOHKMT2uldU8SlELvSjdKLzSooM8gVARPZ0eRD2dbzk9AP3Wuck5GT2U/pG8jqfzPMM+FD3jyCg9vUYiPRBgJb30rEc8pwDQvICfpLt0UGa8vYE/PW2WEL0OmpQ8DUcoPWeDqbzGr/s82DguvFN9JD2ARkw8wZA4PWBWPTsAbC+80C7Iu9BVBTvxlBo90rmlPEYPoTyYWz+8fWFDvWClBbuSqLs8Iv6LPAygRrwnSEc9jGpRPDk4Fz0OXt48eX0YPTQfCr2jAhq97uOnPECgA72Shoo8pLgJvbBQ2Luyeak8piylPACqGzkppj4+AkIevqjtwL0QKB++pLEJPobJ4r3Vn2I+YI94Pi9UZD6uSDk+NzBHPKZwR74/eS2+cuWEPm4NIz5eW0k+M+xXPiCsgz2xI8s9RbM3PrVuF76AJTW+yBcivkXzcL5o1B2+X/glPnX277yNGgY+WQsbPr7ZYL4UqPc9LHoTPj1+O74jOxE+PcRdvTzpHT4hvfO7oounujltCz6spW8+a190PuFb67113VY+8ABrPia8Nb5nEAo+IXmQPcp+BT784mu+e3w6PBPADr7dhFK+ojw9PkoNv70gOai9CgIbvmUkPT7ujHY9RhJfPWQVVjw7dQ4+qZS4vPwhZb6dimI+D6sfPuqmJb7EFp29+/c2vkqGGT5Fek6+KfE2Pud0VD5nZCk+l+w8Pp4VDj2VzBi+99I+vnCncT4F3v49xEUhPlPjCD7WICQ+LDIcPVM6gz4QA0K+VxtdvmC8Bb61BH++b+/zvQPM/T25O5W9kzTJPVG+Pz510zy+AOozPu7IGD7tNeO9YCOqPQvqQr1lMBs+CBdSu354nDwTwjc+YEVwPjCraj6z+7W9tfFjPsXCUD4LFiK+SGATPg0qoT2RpQQ+9m81vjgen72AnwS+YXZkvrYtbj5oD829lEjFvajQKr5QjQQ+tE8pPWog4zz5yhW9jj4dPj3Huzyi30K+HfZMPibCUj62ekK+OJ8ivoYhKr50yj8+vKl1vuCZpD6hZIQ+UU1WPiz8BT6V/iY9l9JQvin7cL60+mY+t/eDPq0xIT66RFU+kaEWPj8YtLsnb3g+N3eOviukWb42wxW+bOeWvtmbZb6edWY+g9eiPWFtFz7QICE+GhZjvlEMNj61Xgk+5fJlvuX+Lj6oBEm9q2E5PkR3k72648095ZhVPuZdVT50mDY+ZPUlvnYFej7vy5M+R0lKvvc2Nj5eOvI9AA0nPt84Zr45LD87W07qvAGuXb7Y634+SBA0vjd5Qr4qx2y+1TI8Po9Txj2R7g8+q74nvmbKRT4Fm5s7t8t5vhShgT7iZ0E+gkwUvpNvJr40UDW+5sHAPdAaIb7A5oI+SXmAPiF8gj4SVhY+4mx5PGuVBb7RJoC+b+JIPmvQKz4NNPc90HRTPhqo7T0W1R09MolMPr8FKr6FVnO+8e0AvgHohb7s4S++uNdhPiNPdL0yZfg97F0TPk2VMr4tlxs+gAGoPZR9/L0E4BY+cU9CvTUWSD65ntc8vWLEPaKnYj6Kynw+rSEqPgmuz73UcDs+loM9Pi5JQr5xNQM+javmPYGxTj7XRXO+79OMvAZDGr7eh1a+2xVPPv93B77+xRS+b4BTvofPWT51xfU8DaAuPdiJXjvSVzI+xnW1vevtQb7klCs+QZ5aPp7uBb45Osq9D4UWvlcxBz7QvjG+WMKZPg52Rj46YjA+SC4DPmoiDT7gOw2+TO5Avss7gz62X10+Ud9KPhVMeD5thSI+cEosPShnaD77/5e+t8SSvpb0071xaJC+s+xGvhnwIj4wJTK9pFnvPaqFOT7y2SG+xdYaPgDRGT5vfDW+rVc6PqUqm73ccFQ+PgoHPaLdCj1nSCk+14SBPrJVbj4e6wa+dYSbPkDMgT5zCS6+6KMmPkxjuj0vvEE+Q2VAvtg1Xbw1jZq9YS+MvsrLcz6zu+a9/ZMEvsQhJb4XPTg+N4XLPeFhLz4eTwa+L1yBPlmzdj1hkGu+bGyCPknNhT5AaFG+OAECvhFaCr4pVkk+TPImvrVDbD4noIc+yR5jPrp56D1ZHJ89DIgbvkpWib4gno8+L/RtPpTOJT5B5WU+IucWPg61fj0XDl8+Ve11vjSbj756rfe9bSFnvqnGNL5Hfjs+HY8+vc0aGj5obFQ+/elLvrOdFT4ZktM9ggMAvs8mNz41yMy9DTVRPjcJB71ZD9U8jVktPhF0aD4pL3A+4CYLvktQbT4QO3c+IR9jvqWARD53nto9E60rPkutWb6R2ke99HQAvh/BWb4oHWE+Mfktvup66r3qpTm+EIEjPsyMDT4Ir9M9Ui/1vBhpIT6GfDm82wiCvtlWeT50BV8+p+rKvWtkTb3IFVW+NgM8PVzOGb5PaSo+q7VJPlIdOT4pQwk961egPKRJQL3czxW+5KAhPk6bLT4eqzc9BiopPjqZFL08SKy9xpNmPoPYHL4bmlG+Zn3mvU/iXb67Tg6+uaPbPVqGWDyRFKw9H8cKPru2s70BNRM+iY9WvFRZEb6Tv6E9uk6DvXn8ED4Usfu9BhkYvUD9Mz55CyU+D/ndPaluqb3oVY0+1xeDPkBepb2TRRc+8webPWDq2z3Khla+K1m+vY/piL3ExjC+kMcmPu3X9r1gFyu+ZoABvsJkBz7DJZ4951ywPQXPrL1Di6M9njUYPeS+K770gBY+IpdyPo9/HL5wose94KwYvmj3Pz5+eHW+6Rl0PsNrQT7GOGI+SNPzPdx01D12KUK+/OKFvqcDUT72FkY+d6xPPlMbUz7z09c9J2KKPOu6lj64Sna+0v5dvjk7Pr67Q4K+s1VOvgj/HT5W2+s82ocMPn5ZEz5W2Vq+q3z5PR2x9z1Idx++oqG+PQksub0U5yI+kwLCPALB1j3YnWE+js9aPr0QJz7vuwy+RiyBPn3+Vz6uvzC+9zAvPoTemz0g+SQ+oYaCvvvflr1H/Ki9EvKQvq1zij5q8lS+JHLAvTtnIb4mQVA+XuXCPTteCT5p4eG9ZgQ7PgrrpTzlBUi+QB82PoXmWT64XyS+mlHfvdh7Kr5NRCw+C0IWvl0fdT7qI4A+YLA8PrSy2D36QzQ9PT0SvvmkPr4ZeIM+RZxbPtiDWD5BGVs+XIWYPcgTGzzHEXE+85SDvpIGhb5oSQ++2suGvrGaab4wE0w+5t89PR3vID5taV8+zt45vgzXGD5ZtYQ9vSj9vagKBz4nAey9NlhePou2Mr31QGo9FsdjPsu/aT6yO4E+VbAbviJNaD5aoEo+Q0AtvmcTQj6Had095QTuPcbWi74Kvxi9CufsvfuMi77U3EI+EPg0vgp5Sr4u5Te+L28RPqImwT3z3A8+86y3vS6YUj5R4uu8dyh6vqWOgT5yuTE+z+gzvlYEMr5LTPK9FOYgPtX3Yb6QLG4+v9MdPn+rbz6ugw0+E1EGu+qPNr6teGi+XWNqPoKYFz7auQ0+sGlhPheEGD6hB0g9dLRCPmH8Sr5pgHW+lS3GvfQqJb7LZjm+bkRDPry7mb2Ij/A9DQ4dPrc6Zr5X9R4+1fEiPkF5R74VswI+1nSgvQ9sGT7cHJ+8wok9PXF8WT48/yY+BKNYPlByAb7A+kY+/MFqPsu4G75pnSI+4dEUPIsQEj58EyC+y3vUvQMsXL0xNnW+XG5KPhqbnr12Igi+noEIvnl5BT63o409SmTQPUC2Er3n/GU+5rPKPNvxZr58Z1o+DcqCPtIndL4FbYG+r7+9PQgLrT2adRa+DQWUPn1XZD4CHWc+2JdVPsaWIL71QFG+TDWevo5fSj6oujg+A6UuPrkzRT7